{
  "version": "1.0",
  "truncation": null,
  "padding": null,
  "added_tokens": [
    {
      "id": 0,
      "content": "<|endoftext|>",
      "single_word": false,
      "lstrip": false,
      "rstrip": false,
      "normalized": true,
      "special": true
    }
  ],
  "normalizer": null,
  "pre_tokenizer": {
    "type": "ByteLevel",
    "add_prefix_space": false,
    "trim_offsets": true,
    "use_regex": true
  },
  "post_processor": {
    "type": "ByteLevel",
    "add_prefix_space": true,
    "trim_offsets": false,
    "use_regex": true
  },
  "decoder": {
    "type": "ByteLevel",
    "add_prefix_space": true,
    "trim_offsets": true,
    "use_regex": true
  },
  "model": {
    "type": "BPE",
    "dropout": null,
    "unk_token": null,
    "continuing_subword_prefix": "",
    "end_of_word_suffix": "",
    "fuse_unk": false,
    "byte_fallback": false,
    "ignore_merges": false,
    "vocab": {
      "<|endoftext|>": 0,
      "!": 1,
      "\"": 2,
      "#": 3,
      "$": 4,
      "%": 5,
      "&": 6,
      "'": 7,
      "(": 8,
      ")": 9,
      "*": 10,
      "+": 11,
      ",": 12,
      "-": 13,
      ".": 14,
      "/": 15,
      "0": 16,
      "1": 17,
      "2": 18,
      "3": 19,
      "4": 20,
      "5": 21,
      "6": 22,
      "7": 23,
      "8": 24,
      "9": 25,
      ":": 26,
      ";": 27,
      "<": 28,
      "=": 29,
      ">": 30,
      "?": 31,
      "@": 32,
      "A": 33,
      "B": 34,
      "C": 35,
      "D": 36,
      "E": 37,
      "F": 38,
      "G": 39,
      "H": 40,
      "I": 41,
      "J": 42,
      "K": 43,
      "L": 44,
      "M": 45,
      "N": 46,
      "O": 47,
      "P": 48,
      "Q": 49,
      "R": 50,
      "S": 51,
      "T": 52,
      "U": 53,
      "V": 54,
      "W": 55,
      "X": 56,
      "Y": 57,
      "Z": 58,
      "[": 59,
      "\\": 60,
      "]": 61,
      "^": 62,
      "_": 63,
      "`": 64,
      "a": 65,
      "b": 66,
      "c": 67,
      "d": 68,
      "e": 69,
      "f": 70,
      "g": 71,
      "h": 72,
      "i": 73,
      "j": 74,
      "k": 75,
      "l": 76,
      "m": 77,
      "n": 78,
      "o": 79,
      "p": 80,
      "q": 81,
      "r": 82,
      "s": 83,
      "t": 84,
      "u": 85,
      "v": 86,
      "w": 87,
      "x": 88,
      "y": 89,
      "z": 90,
      "{": 91,
      "|": 92,
      "}": 93,
      "~": 94,
      "¡": 95,
      "¢": 96,
      "£": 97,
      "¤": 98,
      "¥": 99,
      "¦": 100,
      "§": 101,
      "¨": 102,
      "©": 103,
      "ª": 104,
      "«": 105,
      "¬": 106,
      "®": 107,
      "¯": 108,
      "°": 109,
      "±": 110,
      "²": 111,
      "³": 112,
      "´": 113,
      "µ": 114,
      "¶": 115,
      "·": 116,
      "¸": 117,
      "¹": 118,
      "º": 119,
      "»": 120,
      "¼": 121,
      "½": 122,
      "¾": 123,
      "¿": 124,
      "À": 125,
      "Á": 126,
      "Â": 127,
      "Ã": 128,
      "Ä": 129,
      "Å": 130,
      "Æ": 131,
      "Ç": 132,
      "È": 133,
      "É": 134,
      "Ê": 135,
      "Ë": 136,
      "Ì": 137,
      "Í": 138,
      "Î": 139,
      "Ï": 140,
      "Ð": 141,
      "Ñ": 142,
      "Ò": 143,
      "Ó": 144,
      "Ô": 145,
      "Õ": 146,
      "Ö": 147,
      "×": 148,
      "Ø": 149,
      "Ù": 150,
      "Ú": 151,
      "Û": 152,
      "Ü": 153,
      "Ý": 154,
      "Þ": 155,
      "ß": 156,
      "à": 157,
      "á": 158,
      "â": 159,
      "ã": 160,
      "ä": 161,
      "å": 162,
      "æ": 163,
      "ç": 164,
      "è": 165,
      "é": 166,
      "ê": 167,
      "ë": 168,
      "ì": 169,
      "í": 170,
      "î": 171,
      "ï": 172,
      "ð": 173,
      "ñ": 174,
      "ò": 175,
      "ó": 176,
      "ô": 177,
      "õ": 178,
      "ö": 179,
      "÷": 180,
      "ø": 181,
      "ù": 182,
      "ú": 183,
      "û": 184,
      "ü": 185,
      "ý": 186,
      "þ": 187,
      "ÿ": 188,
      "Ā": 189,
      "ā": 190,
      "Ă": 191,
      "ă": 192,
      "Ą": 193,
      "ą": 194,
      "Ć": 195,
      "ć": 196,
      "Ĉ": 197,
      "ĉ": 198,
      "Ċ": 199,
      "ċ": 200,
      "Č": 201,
      "č": 202,
      "Ď": 203,
      "ď": 204,
      "Đ": 205,
      "đ": 206,
      "Ē": 207,
      "ē": 208,
      "Ĕ": 209,
      "ĕ": 210,
      "Ė": 211,
      "ė": 212,
      "Ę": 213,
      "ę": 214,
      "Ě": 215,
      "ě": 216,
      "Ĝ": 217,
      "ĝ": 218,
      "Ğ": 219,
      "ğ": 220,
      "Ġ": 221,
      "ġ": 222,
      "Ģ": 223,
      "ģ": 224,
      "Ĥ": 225,
      "ĥ": 226,
      "Ħ": 227,
      "ħ": 228,
      "Ĩ": 229,
      "ĩ": 230,
      "Ī": 231,
      "ī": 232,
      "Ĭ": 233,
      "ĭ": 234,
      "Į": 235,
      "į": 236,
      "İ": 237,
      "ı": 238,
      "Ĳ": 239,
      "ĳ": 240,
      "Ĵ": 241,
      "ĵ": 242,
      "Ķ": 243,
      "ķ": 244,
      "ĸ": 245,
      "Ĺ": 246,
      "ĺ": 247,
      "Ļ": 248,
      "ļ": 249,
      "Ľ": 250,
      "ľ": 251,
      "Ŀ": 252,
      "ŀ": 253,
      "Ł": 254,
      "ł": 255,
      "Ń": 256,
      "ĠĠ": 257,
      "ĠĠĠĠ": 258,
      "ĠĠĠ": 259,
      "ĠĠĠĠĠĠĠĠ": 260,
      "re": 261,
      "er": 262,
      "on": 263,
      "in": 264,
      "at": 265,
      "ĠĠĠĠĠĠĠ": 266,
      "ĊĠĠĠĠĠĠĠĠ": 267,
      "th": 268,
      "st": 269,
      "se": 270,
      "Ġ=": 271,
      "en": 272,
      "ĊĠĠĠĠĠĠĠ": 273,
      "or": 274,
      "ar": 275,
      "Ġ$": 276,
      "al": 277,
      "ion": 278,
      "le": 279,
      "ur": 280,
      "Ġ{": 281,
      "Ċĉ": 282,
      "et": 283,
      "is": 284,
      ");": 285,
      "am": 286,
      "ct": 287,
      "an": 288,
      "de": 289,
      "Ġf": 290,
      "ĊĠĠĠĠĠĠĠĠĠĠĠ": 291,
      "if": 292,
      "Ġc": 293,
      "es": 294,
      "Ġn": 295,
      "Ġth": 296,
      "ro": 297,
      "ret": 298,
      "urn": 299,
      "Ġ(": 300,
      "ing": 301,
      "it": 302,
      "return": 303,
      "->": 304,
      "Ġt": 305,
      "ce": 306,
      "Ġ}": 307,
      "ĊĠĠĠ": 308,
      "un": 309,
      "ent": 310,
      "ue": 311,
      "Ġa": 312,
      "Ġp": 313,
      "()": 314,
      "get": 315,
      "Ġthe": 316,
      "ut": 317,
      "Ċĉĉ": 318,
      "Ġif": 319,
      "ed": 320,
      "il": 321,
      "Ġ'": 322,
      "ch": 323,
      "ul": 324,
      "el": 325,
      "Ġs": 326,
      "pt": 327,
      "li": 328,
      "lo": 329,
      "//": 330,
      "id": 331,
      "Ġin": 332,
      "ex": 333,
      "ame": 334,
      "ate": 335,
      "Ġo": 336,
      "Ġb": 337,
      "ra": 338,
      "ĊĠĠĠĠĠĠĠĠĠĠĠĠĠĠĠ": 339,
      "as": 340,
      "Ġm": 341,
      "this": 342,
      "($": 343,
      "ĊĠĠĠĠĠĠĠĠĠĠĠĠĠĠĠĠ": 344,
      "ag": 345,
      "ad": 346,
      "ction": 347,
      "ring": 348,
      "pe": 349,
      "aram": 350,
      "Ġre": 351,
      "Ġreturn": 352,
      "co": 353,
      "Ġst": 354,
      "fi": 355,
      "Ġse": 356,
      "Ġ\"": 357,
      "ck": 358,
      "val": 359,
      "ri": 360,
      "St": 361,
      "ew": 362,
      "em": 363,
      "Ġd": 364,
      "err": 365,
      "lf": 366,
      "Ġw": 367,
      "ot": 368,
      "ption": 369,
      "ab": 370,
      "ub": 371,
      "ĊĊĠĠĠĠĠĠĠ": 372,
      "param": 373,
      "um": 374,
      "ation": 375,
      "im": 376,
      "ont": 377,
      "Ġto": 378,
      "In": 379,
      "and": 380,
      "ol": 381,
      "ode": 382,
      "ype": 383,
      "ata": 384,
      "))": 385,
      "--": 386,
      "ap": 387,
      "ect": 388,
      "ĊĠĠĠĠ": 389,
      "ey": 390,
      "Ġ:": 391,
      "Ċĉĉĉ": 392,
      "ter": 393,
      "res": 394,
      "age": 395,
      "ext": 396,
      "om": 397,
      "unction": 398,
      "('": 399,
      "Ġerr": 400,
      "us": 401,
      "set": 402,
      "Ġfor": 403,
      "ver": 404,
      "ult": 405,
      "ray": 406,
      "lic": 407,
      "',": 408,
      "ist": 409,
      "ic": 410,
      "Ex": 411,
      "able": 412,
      "he": 413,
      "ull": 414,
      "();": 415,
      "Ġ*": 416,
      "ath": 417,
      "Re": 418,
      "up": 419,
      "ĊĠĠĠĠĠ": 420,
      "ess": 421,
      "Ġself": 422,
      "Ġnew": 423,
      "Ġis": 424,
      "all": 425,
      "ile": 426,
      "(\"": 427,
      "od": 428,
      "ĊĠĠĠĠĠĠĠĠĠĠĠĠĠĠĠĠĠĠĠ": 429,
      "def": 430,
      "end": 431,
      "['": 432,
      "value": 433,
      "Ġ//": 434,
      "ass": 435,
      "Ġ==": 436,
      "Ġ0": 437,
      "ase": 438,
      "bj": 439,
      "int": 440,
      "\",": 441,
      "']": 442,
      "ment": 443,
      "Ġ!": 444,
      "Ġ+": 445,
      "name": 446,
      "Ġof": 447,
      "nt": 448,
      "key": 449,
      "array": 450,
      "ve": 451,
      "Name": 452,
      "ublic": 453,
      "Ġv": 454,
      "String": 455,
      "que": 456,
      "pl": 457,
      "Ġh": 458,
      "Ġfunction": 459,
      "ers": 460,
      "onfi": 461,
      "Ġl": 462,
      "onfig": 463,
      "ception": 464,
      "ig": 465,
      "iz": 466,
      "ĠT": 467,
      "ĠC": 468,
      "to": 469,
      "row": 470,
      "per": 471,
      "put": 472,
      "lass": 473,
      "::": 474,
      "ĠS": 475,
      "Ġstring": 476,
      "Ġel": 477,
      "for": 478,
      "bject": 479,
      "Ġe": 480,
      "Ġnull": 481,
      "public": 482,
      "eld": 483,
      "Ġ!=": 484,
      "qu": 485,
      "quest": 486,
      "Ġ:=": 487,
      "ime": 488,
      "Exception": 489,
      "):": 490,
      "Ġ&": 491,
      "ack": 492,
      "Ġnil": 493,
      "vi": 494,
      "Ġtr": 495,
      "ach": 496,
      "art": 497,
      "ort": 498,
      "ser": 499,
      "Ġg": 500,
      "our": 501,
      "po": 502,
      "Ġelse": 503,
      "Ġ[": 504,
      "pon": 505,
      "pro": 506,
      "ore": 507,
      "sion": 508,
      "Ġ($": 509,
      "ace": 510,
      "Ġ=>": 511,
      "arg": 512,
      "Ġres": 513,
      "Ġ.": 514,
      "Val": 515,
      "unc": 516,
      "atch": 517,
      "')": 518,
      "der": 519,
      "Ġthis": 520,
      "rom": 521,
      "ith": 522,
      "self": 523,
      "te": 524,
      "Ġarray": 525,
      "ĠA": 526,
      "Ġ1": 527,
      "Ġand": 528,
      "ay": 529,
      "rr": 530,
      "ĉĉ": 531,
      "one": 532,
      "Ġex": 533,
      "Ġnot": 534,
      "----": 535,
      "ain": 536,
      "De": 537,
      "ang": 538,
      "Ġget": 539,
      "ance": 540,
      "unt": 541,
      "Err": 542,
      "Type": 543,
      "Ġ#": 544,
      "ĊĠĠĠĠĠĠĠĠĠĠĠĠĠĠĠĠĠĠĠĠĠĠĠĠ": 545,
      "Ġas": 546,
      "Ġbe": 547,
      "Id": 548,
      "oc": 549,
      "rent": 550,
      "data": 551,
      "out": 552,
      "ir": 553,
      "Ġpro": 554,
      "Ġr": 555,
      "ĊĊ": 556,
      "tt": 557,
      "Pro": 558,
      "log": 559,
      "ow": 560,
      "alse": 561,
      "ine": 562,
      "ĠN": 563,
      "Res": 564,
      "dd": 565,
      "file": 566,
      "ource": 567,
      "ĠI": 568,
      "ize": 569,
      "Ġ_": 570,
      "form": 571,
      "sh": 572,
      "ity": 573,
      "func": 574,
      "Ġ-": 575,
      "Ġ)": 576,
      "cont": 577,
      "dex": 578,
      "._": 579,
      "path": 580,
      "ield": 581,
      "Ġde": 582,
      "red": 583,
      "\"\"": 584,
      "==": 585,
      "Error": 586,
      "Ġvalue": 587,
      "list": 588,
      "List": 589,
      "fo": 590,
      "type": 591,
      "Ġit": 592,
      "app": 593,
      "ponse": 594,
      "add": 595,
      "ord": 596,
      "Ġan": 597,
      "ry": 598,
      "con": 599,
      "Ġ<": 600,
      "lement": 601,
      "Cont": 602,
      "ak": 603,
      "rit": 604,
      "eth": 605,
      "),": 606,
      "ptions": 607,
      "vent": 608,
      "ĊĠĠĠĠĠĠĠĠĠĠĠĠĠĠĠĠĠĠĠĠĠĠĠ": 609,
      "essage": 610,
      "Ġi": 611,
      "ĊĠ": 612,
      "Ġcont": 613,
      "stance": 614,
      "cess": 615,
      "ĊĊĠĠĠ": 616,
      "To": 617,
      "att": 618,
      "ind": 619,
      "rib": 620,
      "com": 621,
      "code": 622,
      "Ġerror": 623,
      "Ġ&&": 624,
      "ethod": 625,
      "string": 626,
      "**": 627,
      "user": 628,
      "ff": 629,
      "Ġor": 630,
      "ĠP": 631,
      "iv": 632,
      "ory": 633,
      "reate": 634,
      "ug": 635,
      "valid": 636,
      "op": 637,
      "Value": 638,
      "ĠF": 639,
      "und": 640,
      "())": 641,
      "ĠM": 642,
      "ery": 643,
      "Ġcon": 644,
      "ition": 645,
      "ault": 646,
      "ER": 647,
      "port": 648,
      "ans": 649,
      "ild": 650,
      "ute": 651,
      "ure": 652,
      "\")": 653,
      "Key": 654,
      "ator": 655,
      "ule": 656,
      "Ġ%": 657,
      "Ġint": 658,
      "Ġfalse": 659,
      "eng": 660,
      "col": 661,
      "use": 662,
      "Ġset": 663,
      "ON": 664,
      "ument": 665,
      "Ar": 666,
      "ken": 667,
      "oo": 668,
      "vice": 669,
      "IN": 670,
      "(),": 671,
      "ip": 672,
      "En": 673,
      "args": 674,
      "Ġfile": 675,
      "ĊĊĠĠĠĠĠĠĠĠĠĠĠ": 676,
      "Ġtrue": 677,
      "ial": 678,
      "ID": 679,
      "ail": 680,
      "ax": 681,
      "odel": 682,
      "Object": 683,
      "str": 684,
      "Ġwith": 685,
      "lient": 686,
      "act": 687,
      "ies": 688,
      "Ġ|": 689,
      "ht": 690,
      "Ġcom": 691,
      "pert": 692,
      "Ġthrow": 693,
      "Lo": 694,
      "Get": 695,
      "Ġfrom": 696,
      "Data": 697,
      "lock": 698,
      "Ġch": 699,
      "Ġdata": 700,
      "ength": 701,
      "inal": 702,
      "Ġstat": 703,
      "Con": 704,
      "ader": 705,
      "url": 706,
      "ire": 707,
      "sc": 708,
      "Ġname": 709,
      "class": 710,
      "roup": 711,
      "Ġ\\": 712,
      "ast": 713,
      "ated": 714,
      "Ġj": 715,
      "];": 716,
      "ger": 717,
      "Set": 718,
      "ener": 719,
      "date": 720,
      "ust": 721,
      "ĠString": 722,
      "File": 723,
      "ign": 724,
      "[]": 725,
      "Ġ(!": 726,
      "Ġon": 727,
      "pp": 728,
      "urrent": 729,
      "Ċĉĉĉĉ": 730,
      "00": 731,
      "');": 732,
      "[$": 733,
      "Path": 734,
      "var": 735,
      "().": 736,
      "Ġkey": 737,
      "ĠD": 738,
      "ren": 739,
      "ler": 740,
      "Ġ>": 741,
      ").": 742,
      "cl": 743,
      "ange": 744,
      "config": 745,
      "ive": 746,
      "function": 747,
      "os": 748,
      "Bu": 749,
      "ĠR": 750,
      "Com": 751,
      "default": 752,
      "ber": 753,
      "Request": 754,
      "Config": 755,
      "ac": 756,
      "ĊĠĠĠĠĠĠĠĠĠ": 757,
      "rint": 758,
      "oid": 759,
      "Ch": 760,
      "ec": 761,
      "ifi": 762,
      "arse": 763,
      "ink": 764,
      "Ġwh": 765,
      "Ġby": 766,
      "Ġvar": 767,
      "ost": 768,
      "ĠĠĠĠĠĠĠĠĠĠĠĠĠĠĠĠ": 769,
      "Un": 770,
      "heck": 771,
      "Ser": 772,
      "\");": 773,
      "umn": 774,
      "result": 775,
      "ues": 776,
      "ĊĊĉ": 777,
      "load": 778,
      "new": 779,
      "loc": 780,
      "ml": 781,
      "());": 782,
      "low": 783,
      "lect": 784,
      "ly": 785,
      "Class": 786,
      "pre": 787,
      "pec": 788,
      "ilter": 789,
      "ames": 790,
      "Ġlist": 791,
      "':": 792,
      "uth": 793,
      "));": 794,
      "query": 795,
      "..": 796,
      "--------": 797,
      "ttp": 798,
      "read": 799,
      "AT": 800,
      "Ġ===": 801,
      "Ġ);": 802,
      "rite": 803,
      "field": 804,
      "Param": 805,
      "ne": 806,
      "Ġobject": 807,
      "Ġresult": 808,
      "face": 809,
      "Ġ||": 810,
      "son": 811,
      "Ġ?": 812,
      "orm": 813,
      "Ċĉĉĉĉĉ": 814,
      "ache": 815,
      "fe": 816,
      "Ġthat": 817,
      "ST": 818,
      "av": 819,
      "ash": 820,
      "Ġstatic": 821,
      "ork": 822,
      "back": 823,
      "Ġun": 824,
      "tem": 825,
      "ool": 826,
      "rans": 827,
      "ount": 828,
      "Ġ[]": 829,
      "Ġwe": 830,
      "ill": 831,
      "Ġfield": 832,
      "Ġ2": 833,
      "ple": 834,
      "Ġvoid": 835,
      "RE": 836,
      "ph": 837,
      "ound": 838,
      "Ġtype": 839,
      "čĊĠĠĠĠĠĠĠ": 840,
      "ant": 841,
      "terface": 842,
      "Ġ@": 843,
      "ream": 844,
      "Ġstr": 845,
      "pa": 846,
      "ded": 847,
      "ĠThe": 848,
      "By": 849,
      "pos": 850,
      "Ġcase": 851,
      "ary": 852,
      "error": 853,
      "Node": 854,
      "Ġadd": 855,
      "tern": 856,
      "eturn": 857,
      "ms": 858,
      "ress": 859,
      "ise": 860,
      "Ġend": 861,
      "Add": 862,
      "Ġlog": 863,
      "request": 864,
      "pty": 865,
      "UR": 866,
      "pri": 867,
      "ove": 868,
      "Ġal": 869,
      "bu": 870,
      "Ġout": 871,
      "perty": 872,
      "atus": 873,
      "Col": 874,
      "length": 875,
      "Ġ/": 876,
      "arsh": 877,
      "lean": 878,
      "umber": 879,
      "ĠH": 880,
      "not": 881,
      "Ġdo": 882,
      "],": 883,
      "ask": 884,
      "options": 885,
      "Ġinstance": 886,
      "ces": 887,
      "item": 888,
      "Se": 889,
      "mand": 890,
      "Time": 891,
      "append": 892,
      "Ġtry": 893,
      "iven": 894,
      "ĠL": 895,
      "ates": 896,
      "arget": 897,
      "count": 898,
      "of": 899,
      "Ġim": 900,
      "Ġpath": 901,
      "format": 902,
      "ĊĠĠĠĠĠĠĠĠĊĠĠĠĠĠĠĠ": 903,
      "irect": 904,
      "Ġparam": 905,
      "uct": 906,
      "rol": 907,
      "Ġconfig": 908,
      "case": 909,
      "ribute": 910,
      "ĠNone": 911,
      "ave": 912,
      "ected": 913,
      "Ġen": 914,
      "lection": 915,
      "Ġall": 916,
      "OR": 917,
      "ss": 918,
      "Ġk": 919,
      "uration": 920,
      "ĠSet": 921,
      "Ġrequest": 922,
      "====": 923,
      "reak": 924,
      "ĠIn": 925,
      "LE": 926,
      "Ġsh": 927,
      "version": 928,
      "Ġuse": 929,
      "';": 930,
      "ĠW": 931,
      "Ġgiven": 932,
      "rue": 933,
      "Map": 934,
      "fix": 935,
      "rows": 936,
      "Ġid": 937,
      "node": 938,
      "Info": 939,
      "ĠE": 940,
      "sub": 941,
      "Ġpre": 942,
      "Ġcol": 943,
      "ĠĠĠĠĠ": 944,
      "abel": 945,
      "Field": 946,
      "Ġbu": 947,
      "Ġser": 948,
      "ake": 949,
      "])": 950,
      "ings": 951,
      "values": 952,
      "eter": 953,
      "null": 954,
      "Ġy": 955,
      "index": 956,
      "vate": 957,
      "ĠB": 958,
      "__": 959,
      "'s": 960,
      "ĊĠĠĠĠĠĠĠĠĠĠĠĠĠĠĠĠĠĠĠĠĠĠĠĠĠĠĠ": 961,
      "oreach": 962,
      "ĠO": 963,
      "Ġx": 964,
      "gist": 965,
      "Ġlen": 966,
      "Att": 967,
      "Qu": 968,
      "Def": 969,
      "{}": 970,
      "Ġnode": 971,
      "mit": 972,
      "Response": 973,
      "ME": 974,
      "ix": 975,
      "oin": 976,
      "min": 977,
      "ses": 978,
      "yp": 979,
      "Context": 980,
      "cord": 981,
      "Ġup": 982,
      "pace": 983,
      "time": 984,
      "andler": 985,
      "ge": 986,
      "ard": 987,
      "ob": 988,
      "nection": 989,
      "ilder": 990,
      "An": 991,
      "prot": 992,
      "bug": 993,
      "čĊĉ": 994,
      "lete": 995,
      "Ġmethod": 996,
      "own": 997,
      "Log": 998,
      "ight": 999,
      "anag": 1000,
      "ĠJ": 1001,
      "ther": 1002,
      "info": 1003,
      "Element": 1004,
      "print": 1005,
      "Message": 1006,
      "place": 1007,
      "ccess": 1008,
      "by": 1009,
      "arch": 1010,
      "Ent": 1011,
      "\":": 1012,
      "odule": 1013,
      "Ġcall": 1014,
      "plate": 1015,
      "mt": 1016,
      "Return": 1017,
      "ffer": 1018,
      "\\\\": 1019,
      "oolean": 1020,
      "arshall": 1021,
      "ep": 1022,
      "Array": 1023,
      "AR": 1024,
      "Ġtime": 1025,
      "content": 1026,
      "Ġ->": 1027,
      "ib": 1028,
      "let": 1029,
      "yn": 1030,
      "empty": 1031,
      "Ġapp": 1032,
      "ainer": 1033,
      "vel": 1034,
      "action": 1035,
      "ong": 1036,
      "ject": 1037,
      "Ġra": 1038,
      "Ġare": 1039,
      "utes": 1040,
      "vert": 1041,
      "].": 1042,
      "start": 1043,
      "Ġhe": 1044,
      "create": 1045,
      "Ġforeach": 1046,
      "AL": 1047,
      "params": 1048,
      "size": 1049,
      "ations": 1050,
      "line": 1051,
      "Up": 1052,
      "****": 1053,
      "User": 1054,
      "word": 1055,
      "SE": 1056,
      "dir": 1057,
      "ree": 1058,
      "He": 1059,
      "Index": 1060,
      "ists": 1061,
      "object": 1062,
      "Event": 1063,
      "private": 1064,
      "ponent": 1065,
      "State": 1066,
      "table": 1067,
      "chem": 1068,
      "text": 1069,
      "Ġfinal": 1070,
      "64": 1071,
      "++": 1072,
      "ctx": 1073,
      "Ġcurrent": 1074,
      "protected": 1075,
      "Client": 1076,
      "response": 1077,
      "ific": 1078,
      "čĊ": 1079,
      "ll": 1080,
      "est": 1081,
      "čĊĠĠĠĠĠĠĠĠĠĠĠ": 1082,
      "uld": 1083,
      "ody": 1084,
      "Ġatt": 1085,
      "andle": 1086,
      "link": 1087,
      "Ġuser": 1088,
      "lose": 1089,
      "anager": 1090,
      "map": 1091,
      "->_": 1092,
      "Arg": 1093,
      "()->": 1094,
      "cept": 1095,
      "tes": 1096,
      "Ġsub": 1097,
      "throws": 1098,
      "ĠG": 1099,
      "ould": 1100,
      "ypes": 1101,
      "match": 1102,
      "Ġcheck": 1103,
      "ages": 1104,
      "Ġro": 1105,
      "ified": 1106,
      "cket": 1107,
      "DE": 1108,
      "Ġbreak": 1109,
      "ript": 1110,
      "Ġspec": 1111,
      "move": 1112,
      "Im": 1113,
      "model": 1114,
      "Ġdefault": 1115,
      "ann": 1116,
      "cur": 1117,
      "local": 1118,
      "čĊĉĉ": 1119,
      "esc": 1120,
      "eters": 1121,
      "ags": 1122,
      "Ġform": 1123,
      "eta": 1124,
      "entity": 1125,
      "di": 1126,
      "Ġbool": 1127,
      "Code": 1128,
      "feren": 1129,
      "pi": 1130,
      "event": 1131,
      "Ġ`": 1132,
      "\\\"": 1133,
      "URL": 1134,
      "ok": 1135,
      "New": 1136,
      "Ġ+=": 1137,
      "yst": 1138,
      "message": 1139,
      "Interface": 1140,
      "Query": 1141,
      "Form": 1142,
      "Ġcan": 1143,
      "work": 1144,
      "ook": 1145,
      "riter": 1146,
      "Ġrange": 1147,
      "Service": 1148,
      "point": 1149,
      "argument": 1150,
      "iew": 1151,
      "ystem": 1152,
      "Ġcatch": 1153,
      "Ġwill": 1154,
      "abled": 1155,
      "ocument": 1156,
      "ĠĠĠĠĠĠ": 1157,
      "Item": 1158,
      "[\"": 1159,
      "bo": 1160,
      "Ġhas": 1161,
      "Ġclass": 1162,
      "Token": 1163,
      "idth": 1164,
      "Valid": 1165,
      "call": 1166,
      "Ġreturns": 1167,
      "Ġresponse": 1168,
      "EN": 1169,
      "Ġle": 1170,
      "qual": 1171,
      "method": 1172,
      "ename": 1173,
      "ributes": 1174,
      "token": 1175,
      "Ġcreate": 1176,
      "'.": 1177,
      "group": 1178,
      "Status": 1179,
      "Not": 1180,
      "Ġcontext": 1181,
      "Group": 1182,
      "par": 1183,
      "Result": 1184,
      "defin": 1185,
      "Ġindex": 1186,
      "ert": 1187,
      "instance": 1188,
      "ION": 1189,
      "ĊĊĠĠĠĠĠĠĠĠĠĠĠĠĠĠĠ": 1190,
      "ql": 1191,
      "Ġ{}": 1192,
      "Ġoptions": 1193,
      "Ut": 1194,
      "Stream": 1195,
      "sert": 1196,
      "entry": 1197,
      "ite": 1198,
      "pres": 1199,
      "Ġvalid": 1200,
      "perties": 1201,
      "Builder": 1202,
      "Ġitem": 1203,
      "ription": 1204,
      "write": 1205,
      "cond": 1206,
      "qui": 1207,
      "rig": 1208,
      "ackage": 1209,
      "current": 1210,
      "yle": 1211,
      "arent": 1212,
      "db": 1213,
      "loat": 1214,
      "Input": 1215,
      "ĠRe": 1216,
      "Ġne": 1217,
      "etad": 1218,
      "Ġ\"\"\"": 1219,
      "Th": 1220,
      "ps": 1221,
      "Out": 1222,
      "context": 1223,
      "Ġstart": 1224,
      "plit": 1225,
      "etadata": 1226,
      "</": 1227,
      "Util": 1228,
      "Table": 1229,
      "=\"": 1230,
      "nd": 1231,
      "ension": 1232,
      "ĠIf": 1233,
      "Ġmessage": 1234,
      "Resource": 1235,
      "]);": 1236,
      "md": 1237,
      "ref": 1238,
      "so": 1239,
      "iable": 1240,
      "base": 1241,
      "Ġ!==": 1242,
      "ush": 1243,
      "////": 1244,
      "''": 1245,
      "Of": 1246,
      "pect": 1247,
      "input": 1248,
      "Size": 1249,
      "state": 1250,
      "ia": 1251,
      "Ġret": 1252,
      "ilename": 1253,
      "Ġelement": 1254,
      "SS": 1255,
      "sed": 1256,
      "itle": 1257,
      "Ġevent": 1258,
      "ract": 1259,
      "ternal": 1260,
      "trans": 1261,
      "ify": 1262,
      "che": 1263,
      "aders": 1264,
      "\"\"\"": 1265,
      "chema": 1266,
      "rl": 1267,
      "plo": 1268,
      "ugin": 1269,
      "oint": 1270,
      "Or": 1271,
      "Tra": 1272,
      "tocol": 1273,
      "Ġraise": 1274,
      "From": 1275,
      "pts": 1276,
      "irst": 1277,
      "Content": 1278,
      "Ġno": 1279,
      "Ġ*/": 1280,
      ">>": 1281,
      "ĊĠĠĠĠĠĠĠĠĠĠĠĠĠĠĠĠĠĠĠĠĠĠĠĠĠĠĠĠĠĠĠĠ": 1282,
      "\";": 1283,
      "ference": 1284,
      "check": 1285,
      "Ġcl": 1286,
      "ft": 1287,
      "rc": 1288,
      "CT": 1289,
      "Ġmatch": 1290,
      "ĊĠĠĠĠĊĠĠĠ": 1291,
      "isset": 1292,
      "max": 1293,
      "clu": 1294,
      "filter": 1295,
      "Model": 1296,
      "ĠV": 1297,
      "iled": 1298,
      "Pre": 1299,
      "Ġ3": 1300,
      "'t": 1301,
      "----------------": 1302,
      "ote": 1303,
      "Loc": 1304,
      "Method": 1305,
      "vid": 1306,
      "irectory": 1307,
      "ING": 1308,
      "Ġstate": 1309,
      "rap": 1310,
      "ride": 1311,
      "replace": 1312,
      "annel": 1313,
      "lob": 1314,
      "pression": 1315,
      "Ġext": 1316,
      "arn": 1317,
      "Trans": 1318,
      "ifier": 1319,
      "Manager": 1320,
      "((": 1321,
      "Ġ\"\"\"\"\"\"": 1322,
      "lication": 1323,
      "emplate": 1324,
      "ron": 1325,
      "AN": 1326,
      "IT": 1327,
      "output": 1328,
      "With": 1329,
      "'],": 1330,
      "parse": 1331,
      "SON": 1332,
      "etri": 1333,
      "ature": 1334,
      "obj": 1335,
      "ized": 1336,
      "Property": 1337,
      "client": 1338,
      "Count": 1339,
      "json": 1340,
      "Ġu": 1341,
      "Sh": 1342,
      "Ġboolean": 1343,
      "ersion": 1344,
      "AP": 1345,
      "ateg": 1346,
      "auth": 1347,
      "Ġparse": 1348,
      "cs": 1349,
      "has": 1350,
      "sum": 1351,
      "actory": 1352,
      "debug": 1353,
      "ffset": 1354,
      "Ġargs": 1355,
      "Ġread": 1356,
      "view": 1357,
      "verride": 1358,
      "here": 1359,
      "Params": 1360,
      "itial": 1361,
      "column": 1362,
      "pen": 1363,
      "we": 1364,
      "For": 1365,
      "Ġinput": 1366,
      "Sub": 1367,
      "Ġinstanceof": 1368,
      "atab": 1369,
      "Returns": 1370,
      "},": 1371,
      "sw": 1372,
      "inue": 1373,
      "Ġbase": 1374,
      "sing": 1375,
      "mp": 1376,
      "ĠAr": 1377,
      "Ġline": 1378,
      "mis": 1379,
      "len": 1380,
      "parent": 1381,
      "ĊĊĠĠĠĠĠ": 1382,
      "Options": 1383,
      "ark": 1384,
      "http": 1385,
      "='": 1386,
      "py": 1387,
      "dis": 1388,
      "Ġpublic": 1389,
      "Ġpl": 1390,
      "final": 1391,
      "sg": 1392,
      "atabase": 1393,
      "None": 1394,
      "uble": 1395,
      "ĠTh": 1396,
      "Ġvalues": 1397,
      "Ġtrans": 1398,
      "RO": 1399,
      "\"]": 1400,
      "join": 1401,
      "attr": 1402,
      "ĠObject": 1403,
      "from": 1404,
      "Ġso": 1405,
      "Text": 1406,
      "Handler": 1407,
      "amespace": 1408,
      "printf": 1409,
      "Ġ});": 1410,
      "ML": 1411,
      "Ġat": 1412,
      "ailed": 1413,
      "api": 1414,
      "ĊĠĠĠĠĠĠĠĠĠĠĠĠĠĠĠĠĠĠĠĠĠĠĠĠĠĠĠĠĠĠĠĠĠĠĠĠĠĠĠĠ": 1415,
      "Ġmake": 1416,
      "Ġmap": 1417,
      "ments": 1418,
      "Version": 1419,
      "enc": 1420,
      "ources": 1421,
      "status": 1422,
      "Desc": 1423,
      "itch": 1424,
      "Ġsc": 1425,
      "UT": 1426,
      "Ġpos": 1427,
      "Attribute": 1428,
      "attern": 1429,
      "Ġthrows": 1430,
      "gr": 1431,
      "led": 1432,
      "rim": 1433,
      "'))": 1434,
      "========": 1435,
      "'])": 1436,
      "Le": 1437,
      "DO": 1438,
      "its": 1439,
      "ence": 1440,
      "ally": 1441,
      "are": 1442,
      "update": 1443,
      "Argument": 1444,
      "ample": 1445,
      "Ġcontent": 1446,
      "roller": 1447,
      "Ġsup": 1448,
      "Ġquery": 1449,
      "ixed": 1450,
      "Ġurl": 1451,
      "ĠList": 1452,
      "Column": 1453,
      "Ġos": 1454,
      "old": 1455,
      "ices": 1456,
      "Ġoutput": 1457,
      "ply": 1458,
      "Instance": 1459,
      "Url": 1460,
      "ĊĊĉĉ": 1461,
      "order": 1462,
      "Ġtoken": 1463,
      "Ro": 1464,
      "ym": 1465,
      "wargs": 1466,
      "assword": 1467,
      "32": 1468,
      "Check": 1469,
      "fl": 1470,
      "Ġ{@": 1471,
      "Ġhave": 1472,
      "quired": 1473,
      "Date": 1474,
      "vider": 1475,
      "LO": 1476,
      "Ġus": 1477,
      "ud": 1478,
      "Default": 1479,
      "exists": 1480,
      "ding": 1481,
      "mon": 1482,
      "cope": 1483,
      "CE": 1484,
      "ync": 1485,
      "Start": 1486,
      "ide": 1487,
      "ish": 1488,
      "raw": 1489,
      "ys": 1490,
      "Ġsets": 1491,
      "ustom": 1492,
      "App": 1493,
      "Ġcode": 1494,
      "){": 1495,
      "Sc": 1496,
      "sent": 1497,
      "util": 1498,
      "cache": 1499,
      "element": 1500,
      "Ġfound": 1501,
      "Update": 1502,
      "num": 1503,
      "older": 1504,
      "...": 1505,
      "CO": 1506,
      "Create": 1507,
      "Ġinto": 1508,
      "Str": 1509,
      "ĊĠĠĠĠĠĠĠĠĠĠĠĠĠĠĠĠĠĠĠĠĠĠĠĠĠĠĠĠĠĠĠ": 1510,
      "Ġdis": 1511,
      "GE": 1512,
      "Ġmax": 1513,
      "gister": 1514,
      "čĊĠĠĠ": 1515,
      "Ġ4": 1516,
      "Ġz": 1517,
      "Ġli": 1518,
      "last": 1519,
      "stat": 1520,
      "PE": 1521,
      "ell": 1522,
      "ich": 1523,
      "ĠGet": 1524,
      "doc": 1525,
      "Invalid": 1526,
      "Int": 1527,
      "tings": 1528,
      "teger": 1529,
      "label": 1530,
      "orage": 1531,
      "rame": 1532,
      "Ġone": 1533,
      "Call": 1534,
      "byte": 1535,
      "stant": 1536,
      "part": 1537,
      "tag": 1538,
      "Output": 1539,
      "Ġtext": 1540,
      "page": 1541,
      "UL": 1542,
      "fore": 1543,
      "play": 1544,
      "Auth": 1545,
      "Em": 1546,
      "Ġany": 1547,
      "ld": 1548,
      "source": 1549,
      "scription": 1550,
      "tra": 1551,
      "opy": 1552,
      "pan": 1553,
      "iter": 1554,
      "ov": 1555,
      "pend": 1556,
      "ava": 1557,
      "clude": 1558,
      "struct": 1559,
      "Ġjson": 1560,
      "FI": 1561,
      "Ġtable": 1562,
      "Ġhttp": 1563,
      "target": 1564,
      "Ġwhile": 1565,
      "Ġwhen": 1566,
      "Ġmodel": 1567,
      "ors": 1568,
      "ution": 1569,
      "Dir": 1570,
      "Marshall": 1571,
      "Ġlo": 1572,
      "\".": 1573,
      "next": 1574,
      "Ġexcept": 1575,
      "Entry": 1576,
      "Ġnumber": 1577,
      "keys": 1578,
      "Ġparent": 1579,
      "Var": 1580,
      "TT": 1581,
      "Ġappend": 1582,
      "::$": 1583,
      "omain": 1584,
      "Cache": 1585,
      "Ġ[];": 1586,
      "be": 1587,
      "Ġformat": 1588,
      "ines": 1589,
      "Pl": 1590,
      "ual": 1591,
      "Ġfmt": 1592,
      "End": 1593,
      "mission": 1594,
      "Enabled": 1595,
      "Line": 1596,
      "Ġshould": 1597,
      "All": 1598,
      "Ġcount": 1599,
      "'),": 1600,
      "Ġfirst": 1601,
      "Ġrun": 1602,
      "reg": 1603,
      "child": 1604,
      "select": 1605,
      "fter": 1606,
      "Override": 1607,
      "ĠNew": 1608,
      "Ġerrors": 1609,
      "Format": 1610,
      "Ġother": 1611,
      "ape": 1612,
      "Filter": 1613,
      "quals": 1614,
      "ĊĊĠ": 1615,
      "Ġtarget": 1616,
      "Ġmust": 1617,
      "10": 1618,
      "Ġversion": 1619,
      "Per": 1620,
      "():": 1621,
      "Ġ((": 1622,
      "raph": 1623,
      "Ġclient": 1624,
      "Ġresource": 1625,
      "Ġargument": 1626,
      "block": 1627,
      "ale": 1628,
      "otal": 1629,
      "čĊĠĠĠĠĠĠĠĠĠĠĠĠĠĠĠ": 1630,
      "As": 1631,
      "Ġelif": 1632,
      "angu": 1633,
      "untime": 1634,
      "Ġ_,": 1635,
      "html": 1636,
      "Ġ.=": 1637,
      "://": 1638,
      "gener": 1639,
      "split": 1640,
      "Pos": 1641,
      "Dis": 1642,
      "TE": 1643,
      "Ġonly": 1644,
      "nect": 1645,
      "post": 1646,
      "pr": 1647,
      "Ġspecified": 1648,
      "View": 1649,
      "entifier": 1650,
      "arser": 1651,
      "ĠX": 1652,
      "If": 1653,
      "Ġused": 1654,
      "]))": 1655,
      "resource": 1656,
      "ĠException": 1657,
      "sign": 1658,
      "etch": 1659,
      "Ġpart": 1660,
      "msg": 1661,
      "LA": 1662,
      "Tag": 1663,
      "do": 1664,
      "Ġprint": 1665,
      "Ġ(!$": 1666,
      "ative": 1667,
      "find": 1668,
      "io": 1669,
      "Ġcre": 1670,
      "ecute": 1671,
      "ait": 1672,
      "Block": 1673,
      "host": 1674,
      "Action": 1675,
      "Ġnext": 1676,
      "********": 1677,
      "[:": 1678,
      "Ġ'''": 1679,
      "service": 1680,
      "apt": 1681,
      "module": 1682,
      "remove": 1683,
      "lation": 1684,
      "etwork": 1685,
      "mer": 1686,
      "uccess": 1687,
      "ause": 1688,
      "true": 1689,
      "Ġper": 1690,
      "'];": 1691,
      "amp": 1692,
      "ession": 1693,
      "Ġac": 1694,
      "Ġparams": 1695,
      "\"))": 1696,
      "ner": 1697,
      "ible": 1698,
      "defined": 1699,
      "store": 1700,
      "TY": 1701,
      "Ġwhich": 1702,
      "ie": 1703,
      "##": 1704,
      "peration": 1705,
      "Source": 1706,
      "Ġprocess": 1707,
      "ĠU": 1708,
      "licy": 1709,
      "AME": 1710,
      "ĠCon": 1711,
      "Header": 1712,
      "ĊĠĠĠĠĠĠĠĠĠĠĠĠĠ": 1713,
      "Server": 1714,
      "uto": 1715,
      "Ġok": 1716,
      "Ġgener": 1717,
      "ĠTrue": 1718,
      "server": 1719,
      "Ġ>=": 1720,
      "ization": 1721,
      "Ġsource": 1722,
      "Ġcolumn": 1723,
      "uri": 1724,
      "etail": 1725,
      "Read": 1726,
      "Ġblock": 1727,
      "The": 1728,
      "Ġupdate": 1729,
      "Ref": 1730,
      "Buffer": 1731,
      "Gener": 1732,
      "OException": 1733,
      "On": 1734,
      "Ġfunc": 1735,
      "čĊĉĉĉ": 1736,
      "([": 1737,
      "Ġcommand": 1738,
      "Ġdoes": 1739,
      "ains": 1740,
      "items": 1741,
      "char": 1742,
      "Rem": 1743,
      "files": 1744,
      "Marshaller": 1745,
      "root": 1746,
      "Ġgroup": 1747,
      "Cl": 1748,
      "ĠFile": 1749,
      "++)": 1750,
      "ous": 1751,
      "Ġprotocol": 1752,
      "unk": 1753,
      "fields": 1754,
      "session": 1755,
      "leg": 1756,
      "equals": 1757,
      "process": 1758,
      "image": 1759,
      "Component": 1760,
      "ĠThis": 1761,
      "Ġrem": 1762,
      "Ġmixed": 1763,
      "Ġdi": 1764,
      "Be": 1765,
      "Number": 1766,
      "Ġsize": 1767,
      "Ġ'/": 1768,
      "elper": 1769,
      "Ġobj": 1770,
      "DB": 1771,
      "indow": 1772,
      "itor": 1773,
      "Ġ'.": 1774,
      "Entity": 1775,
      "dict": 1776,
      "Ġ['": 1777,
      "Factory": 1778,
      "lobal": 1779,
      "ns": 1780,
      "Ġbut": 1781,
      ".__": 1782,
      "At": 1783,
      "Ġchar": 1784,
      "/*": 1785,
      "pare": 1786,
      "xy": 1787,
      "Ext": 1788,
      "lay": 1789,
      "Ad": 1790,
      "ä¸": 1791,
      "ĠArray": 1792,
      "command": 1793,
      "ĊĠĠ": 1794,
      "Configuration": 1795,
      "ready": 1796,
      "Image": 1797,
      "Child": 1798,
      "ification": 1799,
      "vis": 1800,
      "ĠPro": 1801,
      "CH": 1802,
      "(*": 1803,
      "core": 1804,
      "Al": 1805,
      "bs": 1806,
      "ĠDe": 1807,
      "anguage": 1808,
      "Ġexist": 1809,
      "Ġserver": 1810,
      "][": 1811,
      "filename": 1812,
      "})": 1813,
      "Ġcontinue": 1814,
      "Ġservice": 1815,
      "body": 1816,
      "ton": 1817,
      "12": 1818,
      "getName": 1819,
      "delete": 1820,
      "Errorf": 1821,
      "Ġmin": 1822,
      "close": 1823,
      "Ġlogger": 1824,
      "Spec": 1825,
      "ĊĠĠĠĠĠĠĠĠĠĠĠĠ": 1826,
      "Ġad": 1827,
      "Ġ<=": 1828,
      "Ġcallback": 1829,
      "UN": 1830,
      "Session": 1831,
      "Ġempty": 1832,
      "ormal": 1833,
      "run": 1834,
      "Ġfilter": 1835,
      "Ġnum": 1836,
      "apping": 1837,
      "title": 1838,
      "no": 1839,
      "ke": 1840,
      "Ġwas": 1841,
      "Lock": 1842,
      "Ġcal": 1843,
      "undle": 1844,
      "Ġoff": 1845,
      "Ġfind": 1846,
      "gment": 1847,
      "Ġentry": 1848,
      "uster": 1849,
      "Ġlast": 1850,
      "cre": 1851,
      "']))": 1852,
      "ATE": 1853,
      "Is": 1854,
      "Ġlocal": 1855,
      "IP": 1856,
      "essages": 1857,
      "pected": 1858,
      "rst": 1859,
      "']['": 1860,
      "Rule": 1861,
      "build": 1862,
      "Ġact": 1863,
      "Command": 1864,
      "Ġ**": 1865,
      "Ġ\"\"": 1866,
      "itions": 1867,
      "posit": 1868,
      "property": 1869,
      "logger": 1870,
      "AD": 1871,
      "template": 1872,
      "xml": 1873,
      "queue": 1874,
      "og": 1875,
      "comp": 1876,
      "Ġchild": 1877,
      "location": 1878,
      "Ġref": 1879,
      "Ġfl": 1880,
      "toString": 1881,
      "ĠReturn": 1882,
      "Ġcache": 1883,
      "ailable": 1884,
      "UE": 1885,
      "Ġtra": 1886,
      "Parameter": 1887,
      "Package": 1888,
      "Ġval": 1889,
      "Ġfiles": 1890,
      "Defin": 1891,
      "uid": 1892,
      "Ġaction": 1893,
      "ember": 1894,
      "Length": 1895,
      "Values": 1896,
      "Ġimage": 1897,
      "ating": 1898,
      "Connection": 1899,
      "16": 1900,
      "ĠJSON": 1901,
      "offset": 1902,
      "notation": 1903,
      "idd": 1904,
      "Ġmsg": 1905,
      "ĠFalse": 1906,
      "ical": 1907,
      "Ċĉĉĉĉĉĉ": 1908,
      "container": 1909,
      "ayload": 1910,
      "right": 1911,
      "Ċĉĉĉĉĉĉĉ": 1912,
      "ArgumentException": 1913,
      "coding": 1914,
      "br": 1915,
      "aw": 1916,
      "Ġneed": 1917,
      "ategory": 1918,
      "ou": 1919,
      "Base": 1920,
      "']);": 1921,
      "Ġremove": 1922,
      "hash": 1923,
      "Ġses": 1924,
      "ome": 1925,
      "TTP": 1926,
      "pository": 1927,
      "ick": 1928,
      "Ġsession": 1929,
      "width": 1930,
      "Page": 1931,
      "ported": 1932,
      "ination": 1933,
      "Ġload": 1934,
      "Ġwrite": 1935,
      "Access": 1936,
      "Container": 1937,
      "Ġisinstance": 1938,
      "Ġtag": 1939,
      "stamp": 1940,
      "kip": 1941,
      "option": 1942,
      "search": 1943,
      "Bytes": 1944,
      "enu": 1945,
      "kwargs": 1946,
      "first": 1947,
      "formation": 1948,
      "ox": 1949,
      "river": 1950,
      "sql": 1951,
      "Ġinst": 1952,
      "duct": 1953,
      "Utils": 1954,
      "Option": 1955,
      "header": 1956,
      "limit": 1957,
      "izer": 1958,
      "Store": 1959,
      "ĠCom": 1960,
      "cle": 1961,
      "elp": 1962,
      "Address": 1963,
      "olve": 1964,
      "record": 1965,
      "req": 1966,
      "lice": 1967,
      "PI": 1968,
      "push": 1969,
      "php": 1970,
      "Ġconst": 1971,
      "Ġdef": 1972,
      "prefix": 1973,
      "Ġhandle": 1974,
      "box": 1975,
      "Ġconnection": 1976,
      "CON": 1977,
      "Ġstream": 1978,
      "Ġparameter": 1979,
      "plement": 1980,
      "Row": 1981,
      "Ġproperty": 1982,
      "Ġinterface": 1983,
      "Ġwork": 1984,
      "Names": 1985,
      "NAME": 1986,
      "ĠprotocolMarshaller": 1987,
      "Hash": 1988,
      "see": 1989,
      "email": 1990,
      "Ġbyte": 1991,
      "TYPE": 1992,
      "tml": 1993,
      "ĠID": 1994,
      "And": 1995,
      "Ġ5": 1996,
      "Ġfloat": 1997,
      "LI": 1998,
      "Part": 1999,
      "Ġstatus": 2000,
      "////////": 2001,
      "plode": 2002,
      "fs": 2003,
      "Task": 2004,
      "ries": 2005,
      "callback": 2006,
      "Ġauth": 2007,
      "viron": 2008,
      ".'": 2009,
      "number": 2010,
      "Function": 2011,
      "ĠIOException": 2012,
      "Write": 2013,
      "Ġheader": 2014,
      "Ġbuild": 2015,
      "buf": 2016,
      "Ġback": 2017,
      "Label": 2018,
      "Fl": 2019,
      "Ġrecord": 2020,
      "Empty": 2021,
      "Stat": 2022,
      "Ġrow": 2023,
      "resh": 2024,
      "attributes": 2025,
      "the": 2026,
      "mod": 2027,
      "rule": 2028,
      "false": 2029,
      "stream": 2030,
      "inter": 2031,
      "ume": 2032,
      "OP": 2033,
      "Ġusing": 2034,
      "ince": 2035,
      "SER": 2036,
      "Expression": 2037,
      "Ġlength": 2038,
      "asses": 2039,
      "Writer": 2040,
      "les": 2041,
      "Ġco": 2042,
      "az": 2043,
      "Ġoption": 2044,
      "Template": 2045,
      "sort": 2046,
      "Ġalready": 2047,
      "FA": 2048,
      "very": 2049,
      "Rout": 2050,
      "edia": 2051,
      "Select": 2052,
      "QL": 2053,
      "Collection": 2054,
      "Ġconfiguration": 2055,
      "olicy": 2056,
      "We": 2057,
      "Ġav": 2058,
      "Trace": 2059,
      "way": 2060,
      "Point": 2061,
      "Ġpage": 2062,
      "VER": 2063,
      "DI": 2064,
      "lease": 2065,
      "connection": 2066,
      "Ġroot": 2067,
      "Cre": 2068,
      "Exec": 2069,
      "sor": 2070,
      "MA": 2071,
      "arshal": 2072,
      "DING": 2073,
      "Found": 2074,
      "lower": 2075,
      "Parse": 2076,
      "rypt": 2077,
      "ĠWe": 2078,
      "Ġtask": 2079,
      "down": 2080,
      "raint": 2081,
      "script": 2082,
      "True": 2083,
      "headers": 2084,
      "encode": 2085,
      "fg": 2086,
      "Ġprovi": 2087,
      "imple": 2088,
      "Record": 2089,
      "ias": 2090,
      "aces": 2091,
      "Ġconvert": 2092,
      "04": 2093,
      "Ġmodule": 2094,
      "quire": 2095,
      "Max": 2096,
      "Http": 2097,
      "Null": 2098,
      "style": 2099,
      "KE": 2100,
      "OT": 2101,
      "MP": 2102,
      "with": 2103,
      "ãģ": 2104,
      "Ġbytes": 2105,
      "Load": 2106,
      "sure": 2107,
      "No": 2108,
      "ures": 2109,
      "sl": 2110,
      "Ġnp": 2111,
      "gin": 2112,
      "Ġfields": 2113,
      "Metadata": 2114,
      "Run": 2115,
      "gn": 2116,
      "inary": 2117,
      "Level": 2118,
      "Ġrule": 2119,
      "vices": 2120,
      "ached": 2121,
      "else": 2122,
      "Job": 2123,
      "nown": 2124,
      "idget": 2125,
      "iff": 2126,
      "oci": 2127,
      "Ġ]": 2128,
      "ched": 2129,
      "day": 2130,
      "exception": 2131,
      "Ġsw": 2132,
      "TR": 2133,
      "Next": 2134,
      "rs": 2135,
      "Ġthen": 2136,
      "net": 2137,
      "stri": 2138,
      "etails": 2139,
      "BIN": 2140,
      "Ġ__": 2141,
      "Provider": 2142,
      "Fields": 2143,
      "names": 2144,
      "ek": 2145,
      "Ġinfo": 2146,
      "tc": 2147,
      "Do": 2148,
      "ities": 2149,
      "Rel": 2150,
      "Link": 2151,
      "PO": 2152,
      "utton": 2153,
      "Ġexception": 2154,
      "Match": 2155,
      "Ac": 2156,
      "ids": 2157,
      "cent": 2158,
      "ging": 2159,
      "types": 2160,
      "Ġpoint": 2161,
      "tx": 2162,
      "Definition": 2163,
      "access": 2164,
      "level": 2165,
      "Ġthere": 2166,
      "lish": 2167,
      "open": 2168,
      "Ġ/**": 2169,
      "Ġisset": 2170,
      "atri": 2171,
      "()))": 2172,
      "exp": 2173,
      "marshall": 2174,
      "tr": 2175,
      "break": 2176,
      "entic": 2177,
      "01": 2178,
      "FF": 2179,
      "Ġdate": 2180,
      "cmd": 2181,
      "Mode": 2182,
      "attribute": 2183,
      "Ġeach": 2184,
      "Ġdelete": 2185,
      "Ġhost": 2186,
      "lowed": 2187,
      "<?": 2188,
      "Ġcur": 2189,
      "ĠUn": 2190,
      "NT": 2191,
      "handle": 2192,
      "Ġstore": 2193,
      "Port": 2194,
      "Listener": 2195,
      "Prefix": 2196,
      "env": 2197,
      "Ġparameters": 2198,
      "SI": 2199,
      "send": 2200,
      "Ġind": 2201,
      "throw": 2202,
      "ater": 2203,
      "stants": 2204,
      "Ġdirectory": 2205,
      "bol": 2206,
      "Ġ};": 2207,
      "Ġlabel": 2208,
      "Build": 2209,
      "URI": 2210,
      "Ġselect": 2211,
      "Ġab": 2212,
      "patch": 2213,
      "Char": 2214,
      "Ġattribute": 2215,
      "Ġdest": 2216,
      "copy": 2217,
      "gistry": 2218,
      "Ġsign": 2219,
      "Types": 2220,
      "Ġopen": 2221,
      "AC": 2222,
      "Ġlong": 2223,
      "Process": 2224,
      "buffer": 2225,
      "Host": 2226,
      "her": 2227,
      "Ġstrings": 2228,
      "Delete": 2229,
      "ice": 2230,
      "Reader": 2231,
      "olume": 2232,
      "sp": 2233,
      "ĠCol": 2234,
      "ential": 2235,
      "Ġoffset": 2236,
      "bind": 2237,
      "plugin": 2238,
      "getS": 2239,
      "Ġap": 2240,
      "mary": 2241,
      "ignore": 2242,
      "Ġdouble": 2243,
      "ĊĊĠĠĠĠĠĠĠĠĠĠĠĠĠĠĠĠĠĠĠ": 2244,
      "atrix": 2245,
      "Ġhash": 2246,
      "quence": 2247,
      "present": 2248,
      "ency": 2249,
      "ĠCont": 2250,
      "lem": 2251,
      "]['": 2252,
      "ingle": 2253,
      "{$": 2254,
      "Ġpri": 2255,
      "switch": 2256,
      "Ġinitial": 2257,
      "color": 2258,
      "spec": 2259,
      "Ġview": 2260,
      "address": 2261,
      "org": 2262,
      "Ġtemplate": 2263,
      "roll": 2264,
      "Ġkeys": 2265,
      "ility": 2266,
      "11": 2267,
      "02": 2268,
      "Act": 2269,
      "vious": 2270,
      "Lay": 2271,
      "ĠValue": 2272,
      "src": 2273,
      "Ġiter": 2274,
      "Ġsett": 2275,
      "Iter": 2276,
      "round": 2277,
      "Byte": 2278,
      "defer": 2279,
      "Body": 2280,
      ")))": 2281,
      "ique": 2282,
      "route": 2283,
      "Properties": 2284,
      "(&": 2285,
      "TH": 2286,
      "parameters": 2287,
      "lib": 2288,
      "ãĥ": 2289,
      "Target": 2290,
      "Ġ},": 2291,
      "assed": 2292,
      "BINDING": 2293,
      "ultip": 2294,
      "Ġ/*": 2295,
      "Root": 2296,
      "ymbol": 2297,
      "EX": 2298,
      "Debug": 2299,
      "sole": 2300,
      "warn": 2301,
      "alt": 2302,
      "Ġsend": 2303,
      "HP": 2304,
      "js": 2305,
      "where": 2306,
      "ĠAdd": 2307,
      "Ġbuffer": 2308,
      "loud": 2309,
      "ift": 2310,
      "sup": 2311,
      "emb": 2312,
      "Ġag": 2313,
      "Ġdocument": 2314,
      "Pri": 2315,
      "Ġbeen": 2316,
      "Ġ'';": 2317,
      "False": 2318,
      "Work": 2319,
      "ics": 2320,
      "task": 2321,
      "Ġold": 2322,
      "cul": 2323,
      "rel": 2324,
      "25": 2325,
      "arr": 2326,
      "ĠReturns": 2327,
      "Keys": 2328,
      "iginal": 2329,
      "rem": 2330,
      "çļ": 2331,
      "Helper": 2332,
      "ĠURL": 2333,
      "çļĦ": 2334,
      "'));": 2335,
      "ered": 2336,
      "Ġ(*": 2337,
      "Co": 2338,
      "Ġcomp": 2339,
      "cho": 2340,
      "ĠSer": 2341,
      "merge": 2342,
      "etric": 2343,
      "Ġq": 2344,
      "pack": 2345,
      "Ġelseif": 2346,
      "ulti": 2347,
      "test": 2348,
      "SC": 2349,
      "PAR": 2350,
      "ãĤ": 2351,
      "bl": 2352,
      "getMessage": 2353,
      "Ġexists": 2354,
      "uf": 2355,
      "ved": 2356,
      "This": 2357,
      "unter": 2358,
      "aining": 2359,
      "Stack": 2360,
      "interface": 2361,
      "pop": 2362,
      "wise": 2363,
      "ublish": 2364,
      "emp": 2365,
      "Logger": 2366,
      "Ġvariable": 2367,
      "settings": 2368,
      "Ġreg": 2369,
      "cy": 2370,
      "ĠSe": 2371,
      "TER": 2372,
      "rid": 2373,
      "åı": 2374,
      "ning": 2375,
      "Ġjob": 2376,
      "Sup": 2377,
      "andom": 2378,
      "Ġreq": 2379,
      "('/": 2380,
      "rapper": 2381,
      "}.": 2382,
      "ULT": 2383,
      "pc": 2384,
      "Ġorder": 2385,
      "Ġ6": 2386,
      "API": 2387,
      "Sec": 2388,
      "full": 2389,
      "Min": 2390,
      "position": 2391,
      "Ġnames": 2392,
      "Ġarg": 2393,
      "Ġcor": 2394,
      "Width": 2395,
      "AB": 2396,
      "ODO": 2397,
      "legal": 2398,
      "{},": 2399,
      "Back": 2400,
      "ED": 2401,
      "static": 2402,
      "meta": 2403,
      "JSON": 2404,
      "scrib": 2405,
      "Ġinter": 2406,
      "Ġ\"\\": 2407,
      "Validate": 2408,
      "OL": 2409,
      "dest": 2410,
      "Ġmod": 2411,
      "mode": 2412,
      "Ġopts": 2413,
      "ting": 2414,
      "air": 2415,
      "init": 2416,
      "ugh": 2417,
      "Func": 2418,
      "ĠMap": 2419,
      "ĠType": 2420,
      "Ġnon": 2421,
      "ear": 2422,
      "Tree": 2423,
      "Ġlink": 2424,
      "df": 2425,
      "18": 2426,
      "lang": 2427,
      "vironment": 2428,
      "anges": 2429,
      "Ġcopy": 2430,
      "Ġits": 2431,
      "Ġsort": 2432,
      ")(": 2433,
      "================": 2434,
      "straint": 2435,
      "Ġafter": 2436,
      "Ġport": 2437,
      "Ġed": 2438,
      "ma": 2439,
      "stack": 2440,
      "Ġpassed": 2441,
      "Ġdict": 2442,
      "(_": 2443,
      "Case": 2444,
      "Style": 2445,
      "Ġfe": 2446,
      "gle": 2447,
      "errors": 2448,
      "Ġdb": 2449,
      "description": 2450,
      "erm": 2451,
      "ĊĠĠĠĠĠĠĠĠĠĠĠĠĠĠĠĠĠĠĠĠĠĠĠĠĠĠĠĠĠĠĠĠĠĠĠ": 2452,
      "Que": 2453,
      "flow": 2454,
      "opts": 2455,
      "ĠÐ": 2456,
      "aster": 2457,
      "AM": 2458,
      "wh": 2459,
      "Offset": 2460,
      "Ġimport": 2461,
      "Ali": 2462,
      "Settings": 2463,
      "Ġexec": 2464,
      "height": 2465,
      "anged": 2466,
      "Inter": 2467,
      "ĠClass": 2468,
      "Ġbefore": 2469,
      "conn": 2470,
      "Ġprovided": 2471,
      "ector": 2472,
      "float": 2473,
      "perator": 2474,
      "serial": 2475,
      "cor": 2476,
      "Ġover": 2477,
      "apter": 2478,
      "Meta": 2479,
      "ĠError": 2480,
      "oto": 2481,
      "matches": 2482,
      "tree": 2483,
      "Document": 2484,
      "redential": 2485,
      "lot": 2486,
      "ersist": 2487,
      "Ġarguments": 2488,
      "ock": 2489,
      "Ġ...": 2490,
      "([]": 2491,
      "Ġhandler": 2492,
      "invalid": 2493,
      "du": 2494,
      "ERR": 2495,
      "llegal": 2496,
      "mark": 2497,
      "Ġdatabase": 2498,
      "ln": 2499,
      "ĠLO": 2500,
      "idx": 2501,
      "Sign": 2502,
      "--------------------------------": 2503,
      "Ġ',": 2504,
      "igh": 2505,
      "Ġproperties": 2506,
      "Ġimplement": 2507,
      "password": 2508,
      "ĠY": 2509,
      "handler": 2510,
      "ends": 2511,
      "lt": 2512,
      "getC": 2513,
      "gra": 2514,
      "Ġprefix": 2515,
      "ĠCh": 2516,
      "tmp": 2517,
      "Ġ'',": 2518,
      "aded": 2519,
      "schema": 2520,
      "Files": 2521,
      "nap": 2522,
      "Ġstruct": 2523,
      "nder": 2524,
      "ared": 2525,
      "Ġ8": 2526,
      "save": 2527,
      "inst": 2528,
      "top": 2529,
      "Attributes": 2530,
      "Ġresults": 2531,
      "dition": 2532,
      "Ag": 2533,
      "gress": 2534,
      "getP": 2535,
      "document": 2536,
      "Ġbody": 2537,
      "decode": 2538,
      "dated": 2539,
      "component": 2540,
      "rop": 2541,
      "ĠAPI": 2542,
      "ï¼": 2543,
      "Local": 2544,
      "other": 2545,
      "namespace": 2546,
      "Order": 2547,
      "0000": 2548,
      "Controller": 2549,
      "Len": 2550,
      "Ġrel": 2551,
      "Close": 2552,
      "Ġ'\\": 2553,
      "Storage": 2554,
      "go": 2555,
      "emory": 2556,
      "conds": 2557,
      "Ġme": 2558,
      "Mod": 2559,
      "sets": 2560,
      "Ð°": 2561,
      "da": 2562,
      "gram": 2563,
      "Ġswitch": 2564,
      "Reference": 2565,
      "ploy": 2566,
      "me": 2567,
      "ances": 2568,
      "shot": 2569,
      "Module": 2570,
      "igr": 2571,
      "vok": 2572,
      "99": 2573,
      "ank": 2574,
      "ĠCheck": 2575,
      "can": 2576,
      "definition": 2577,
      "ENT": 2578,
      "EL": 2579,
      "icon": 2580,
      "Timeout": 2581,
      "Ġentity": 2582,
      "Ġrequired": 2583,
      "Num": 2584,
      "Ġsearch": 2585,
      "Ġent": 2586,
      "Range": 2587,
      "Ġaddress": 2588,
      "Args": 2589,
      "Ðµ": 2590,
      "Parameters": 2591,
      "åĪ": 2592,
      "nil": 2593,
      "ged": 2594,
      "SH": 2595,
      "ĠAn": 2596,
      "uch": 2597,
      "Handle": 2598,
      "Ġmarshall": 2599,
      "Ed": 2600,
      "Ġrepresent": 2601,
      "=>": 2602,
      "Sprintf": 2603,
      "uple": 2604,
      "{})": 2605,
      "Ġassert": 2606,
      "sec": 2607,
      "Ġcontainer": 2608,
      "({": 2609,
      "Ġctx": 2610,
      "std": 2611,
      "job": 2612,
      "section": 2613,
      "ĊĊĉĉĉ": 2614,
      "getValue": 2615,
      "Fe": 2616,
      "pattern": 2617,
      "Ġclose": 2618,
      "Ġ];": 2619,
      "System": 2620,
      "ertific": 2621,
      "ient": 2622,
      "left": 2623,
      "Policy": 2624,
      "Color": 2625,
      "Variable": 2626,
      "ted": 2627,
      "Ġtest": 2628,
      ">();": 2629,
      "bytes": 2630,
      "afe": 2631,
      "ii": 2632,
      "Ġcomponent": 2633,
      "etime": 2634,
      "ĠEx": 2635,
      "(\\": 2636,
      "metadata": 2637,
      "etrics": 2638,
      "Parser": 2639,
      "parts": 2640,
      "Ġpass": 2641,
      "acter": 2642,
      "author": 2643,
      "ware": 2644,
      "Ġfilename": 2645,
      "Ġtypes": 2646,
      "parator": 2647,
      "fer": 2648,
      "ĊĠĠĠĠĠĠĠĠĠĠĠĠĠĠĠĠĠ": 2649,
      "Ġposition": 2650,
      "Ġsame": 2651,
      "čĊĠĠĠĠĠĠĠĠĠĠĠĠĠĠĠĠĠĠĠ": 2652,
      "Ġfin": 2653,
      "Copy": 2654,
      "Ð¾": 2655,
      "Height": 2656,
      "pth": 2657,
      "cal": 2658,
      "results": 2659,
      "TML": 2660,
      "now": 2661,
      "Ġuint": 2662,
      "fmt": 2663,
      "anch": 2664,
      "Ġ\".": 2665,
      "åĲ": 2666,
      "ĠĠĠĠĠĠĠĠĠĠĠ": 2667,
      "Ġ\"/": 2668,
      "VAL": 2669,
      "imum": 2670,
      "verse": 2671,
      "Ġ<<": 2672,
      "Ġ10": 2673,
      "stract": 2674,
      "čĊčĊĠĠĠĠĠĠĠ": 2675,
      "plete": 2676,
      "channel": 2677,
      "hether": 2678,
      "connect": 2679,
      "')->": 2680,
      "HTTP": 2681,
      "role": 2682,
      "validate": 2683,
      "active": 2684,
      "rigger": 2685,
      "cat": 2686,
      "register": 2687,
      "rer": 2688,
      "ero": 2689,
      "ĠLOG": 2690,
      "returns": 2691,
      "Ġparser": 2692,
      "execute": 2693,
      "Ġitems": 2694,
      "Ġlevel": 2695,
      "Failed": 2696,
      "cker": 2697,
      "Ġmode": 2698,
      "Identifier": 2699,
      "any": 2700,
      "Ġplugin": 2701,
      "'.$": 2702,
      "Schema": 2703,
      "ensions": 2704,
      "dk": 2705,
      "Ġapi": 2706,
      "rect": 2707,
      "ĠEn": 2708,
      "Doc": 2709,
      "Ġsrc": 2710,
      "utils": 2711,
      "GET": 2712,
      "div": 2713,
      "Ġinformation": 2714,
      "ins": 2715,
      "ĠInvalid": 2716,
      "Description": 2717,
      "Position": 2718,
      "opt": 2719,
      "ux": 2720,
      "Ġavailable": 2721,
      "uffix": 2722,
      "parser": 2723,
      "Ġmay": 2724,
      "napshot": 2725,
      "PA": 2726,
      "ories": 2727,
      "čĊĉĉĉĉ": 2728,
      "ular": 2729,
      "PRO": 2730,
      "ĠIllegal": 2731,
      "lick": 2732,
      "Ġ'%": 2733,
      "Integer": 2734,
      "FAULT": 2735,
      "Ġfail": 2736,
      "domain": 2737,
      "Channel": 2738,
      "curs": 2739,
      "Reg": 2740,
      "reen": 2741,
      "iod": 2742,
      "'):": 2743,
      "Ġchannel": 2744,
      "ĠRequest": 2745,
      "issing": 2746,
      "ender": 2747,
      "render": 2748,
      "ĠK": 2749,
      "properties": 2750,
      "KEY": 2751,
      "Search": 2752,
      "Ġkwargs": 2753,
      "andl": 2754,
      "...)": 2755,
      "Queue": 2756,
      "total": 2757,
      "dat": 2758,
      "ority": 2759,
      "Ġwhere": 2760,
      "Ġ),": 2761,
      "Ġmore": 2762,
      "Ġcollection": 2763,
      "Ġlet": 2764,
      "Unit": 2765,
      "ump": 2766,
      "Convert": 2767,
      "vision": 2768,
      "etry": 2769,
      "bool": 2770,
      "Role": 2771,
      "Ġattributes": 2772,
      "Ġlay": 2773,
      "ULL": 2774,
      "IL": 2775,
      "untimeException": 2776,
      "Ġ'\"": 2777,
      "project": 2778,
      "coder": 2779,
      "Endpoint": 2780,
      "non": 2781,
      "ade": 2782,
      "Cal": 2783,
      "Ġqu": 2784,
      "Ġsingle": 2785,
      "Ġjava": 2786,
      "cip": 2787,
      "rie": 2788,
      "tags": 2789,
      "Ġsuper": 2790,
      "controller": 2791,
      "Warn": 2792,
      "ATION": 2793,
      "});": 2794,
      "++;": 2795,
      "****************": 2796,
      "olver": 2797,
      "Ġdir": 2798,
      "Route": 2799,
      "Application": 2800,
      "admin": 2801,
      "make": 2802,
      "Ġheaders": 2803,
      "Location": 2804,
      "ĊĠĠĠĠĠĠĠĠĠĠĠĠĠĠ": 2805,
      "Ass": 2806,
      "Ġaccess": 2807,
      "Ġinvalid": 2808,
      "columns": 2809,
      "cer": 2810,
      "collection": 2811,
      "Directory": 2812,
      "ĠCreate": 2813,
      "variable": 2814,
      "čĊĠĠĠĠĠ": 2815,
      "Namespace": 2816,
      "alias": 2817,
      "Ġreturned": 2818,
      "Ġfull": 2819,
      "thing": 2820,
      "NotFound": 2821,
      "Json": 2822,
      "000": 2823,
      "lines": 2824,
      "Ġthan": 2825,
      "ground": 2826,
      "Ġyou": 2827,
      "Ġtc": 2828,
      "ynch": 2829,
      "{@": 2830,
      "Ġcmd": 2831,
      "NO": 2832,
      "Sets": 2833,
      "Callback": 2834,
      "Ġfailed": 2835,
      "Ab": 2836,
      "Api": 2837,
      "Ġver": 2838,
      "show": 2839,
      "Constants": 2840,
      "Ġdoc": 2841,
      "cing": 2842,
      "ww": 2843,
      "Ġscope": 2844,
      "ports": 2845,
      "Ġ\"%": 2846,
      "Bundle": 2847,
      "crypt": 2848,
      "ĉĉĉĉ": 2849,
      "ĠTODO": 2850,
      "Ġsuccess": 2851,
      "contains": 2852,
      "Ġtop": 2853,
      "Ġobjects": 2854,
      "amb": 2855,
      "continue": 2856,
      "ward": 2857,
      "Addr": 2858,
      "ĠArrayList": 2859,
      "Ġinit": 2860,
      "Ġpost": 2861,
      "ured": 2862,
      "iler": 2863,
      "marshal": 2864,
      "20": 2865,
      "structor": 2866,
      "Core": 2867,
      "heet": 2868,
      "application": 2869,
      "less": 2870,
      "trim": 2871,
      "Ġcalled": 2872,
      "Ids": 2873,
      "custom": 2874,
      "Ġ()": 2875,
      "Ġ\",": 2876,
      "Last": 2877,
      "Print": 2878,
      "children": 2879,
      "Pool": 2880,
      "abs": 2881,
      "ely": 2882,
      "TI": 2883,
      "ERROR": 2884,
      "late": 2885,
      "ds": 2886,
      "oot": 2887,
      "ertificate": 2888,
      "Change": 2889,
      "Obj": 2890,
      "bar": 2891,
      "Msg": 2892,
      ")->": 2893,
      "locale": 2894,
      "gs": 2895,
      "\").": 2896,
      "ĠMath": 2897,
      "ts": 2898,
      "Remove": 2899,
      "ointer": 2900,
      "Ġelements": 2901,
      "Post": 2902,
      "(!": 2903,
      "ĠConfig": 2904,
      "oved": 2905,
      "contents": 2906,
      "ty": 2907,
      "Ġ('": 2908,
      "rough": 2909,
      "Ġbased": 2910,
      "Ġraw": 2911,
      "Ġ\"\",": 2912,
      "wo": 2913,
      "comment": 2914,
      "ĠData": 2915,
      "inate": 2916,
      "()));": 2917,
      "temp": 2918,
      "resources": 2919,
      "package": 2920,
      "username": 2921,
      "####": 2922,
      "eded": 2923,
      "\"),": 2924,
      "atform": 2925,
      "Ġmetadata": 2926,
      "riteria": 2927,
      "Can": 2928,
      "ynchron": 2929,
      "ĠSt": 2930,
      ".$": 2931,
      "ĊĉĉĊĉ": 2932,
      "æķ": 2933,
      "ĠSystem": 2934,
      "ĠĠĠĠĠĠĠĠĠ": 2935,
      "Ġsettings": 2936,
      "Ġstyle": 2937,
      "Cms": 2938,
      "amed": 2939,
      "expected": 2940,
      "Ġ--": 2941,
      "ancel": 2942,
      "fetch": 2943,
      "change": 2944,
      "Ġvalidate": 2945,
      "Ġcolor": 2946,
      "Loader": 2947,
      "Database": 2948,
      "chedule": 2949,
      "ason": 2950,
      "frame": 2951,
      "imal": 2952,
      "idden": 2953,
      "(\"%": 2954,
      "Lim": 2955,
      "site": 2956,
      "MO": 2957,
      "Ifc": 2958,
      "step": 2959,
      "ĊĠĠĠĠĠĠ": 2960,
      "Ġbuilder": 2961,
      "ĠValueError": 2962,
      "UID": 2963,
      "LS": 2964,
      "UP": 2965,
      "ĠDate": 2966,
      "exec": 2967,
      "range": 2968,
      "resp": 2969,
      "Join": 2970,
      "Open": 2971,
      "plic": 2972,
      "isEmpty": 2973,
      ")]": 2974,
      "ĠKey": 2975,
      "Ġlook": 2976,
      "endar": 2977,
      "ultiple": 2978,
      "className": 2979,
      "Unlock": 2980,
      "iddle": 2981,
      "getId": 2982,
      "lear": 2983,
      "Iterator": 2984,
      "ET": 2985,
      "rt": 2986,
      "wait": 2987,
      "Ġhere": 2988,
      "Ġdefined": 2989,
      "cheme": 2990,
      "rm": 2991,
      "known": 2992,
      "uture": 2993,
      "language": 2994,
      "Ġcreated": 2995,
      "Ġjust": 2996,
      "IG": 2997,
      "Ġencode": 2998,
      "ws": 2999,
      "Ġpattern": 3000,
      "Ġwhether": 3001,
      "NS": 3002,
      "long": 3003,
      "Ġschema": 3004,
      "cause": 3005,
      "pha": 3006,
      "Ġtemp": 3007,
      "ayment": 3008,
      "Ġbuf": 3009,
      "valu": 3010,
      "Ġexisting": 3011,
      "Ġproject": 3012,
      "Ġthem": 3013,
      "Repository": 3014,
      "Any": 3015,
      "Ġsb": 3016,
      "try": 3017,
      "ĠNode": 3018,
      "missions": 3019,
      "Impl": 3020,
      "Ġserial": 3021,
      "Items": 3022,
      "ĠResponse": 3023,
      "Ġ'<": 3024,
      "Ġreference": 3025,
      "\\\",": 3026,
      "side": 3027,
      "exit": 3028,
      "istory": 3029,
      "').": 3030,
      "Ġinteger": 3031,
      "fn": 3032,
      "pk": 3033,
      "timeout": 3034,
      "(\"\\": 3035,
      "ND": 3036,
      "relation": 3037,
      "Ġword": 3038,
      "Descript": 3039,
      "sumer": 3040,
      "Ġotherwise": 3041,
      "Parent": 3042,
      "Ð¸": 3043,
      "15": 3044,
      "sible": 3045,
      "Ġass": 3046,
      "cls": 3047,
      "clear": 3048,
      "bin": 3049,
      "ivity": 3050,
      "af": 3051,
      "Ġconn": 3052,
      "Unable": 3053,
      "actor": 3054,
      "Ġtree": 3055,
      "Scope": 3056,
      "conf": 3057,
      "Ġsp": 3058,
      "UM": 3059,
      "Ġnow": 3060,
      "Ġ''": 3061,
      "pute": 3062,
      "Ġnodes": 3063,
      "man": 3064,
      "ker": 3065,
      "greg": 3066,
      "Ġgenerate": 3067,
      "Plugin": 3068,
      ")),": 3069,
      "OK": 3070,
      "Ġdon": 3071,
      "over": 3072,
      "Frame": 3073,
      "Ġrece": 3074,
      "andard": 3075,
      "ven": 3076,
      "otype": 3077,
      "stop": 3078,
      "Ġbegin": 3079,
      "Ġwidth": 3080,
      "rency": 3081,
      "Internal": 3082,
      "Uri": 3083,
      "Statement": 3084,
      "Bind": 3085,
      "Ġlimit": 3086,
      "dates": 3087,
      "Ġsave": 3088,
      "ÑĤ": 3089,
      "category": 3090,
      "Ġstop": 3091,
      "Cluster": 3092,
      ".\");": 3093,
      "arguments": 3094,
      "leted": 3095,
      "``": 3096,
      "ĊĉĠĠĠ": 3097,
      "ĠCms": 3098,
      "Ġhtml": 3099,
      "java": 3100,
      "achine": 3101,
      "Ġpack": 3102,
      "MS": 3103,
      "Ġignore": 3104,
      "Ġhelp": 3105,
      "13": 3106,
      "foreach": 3107,
      "Ġglobal": 3108,
      "Ġpassword": 3109,
      "prec": 3110,
      "Ġrender": 3111,
      "IS": 3112,
      "ls": 3113,
      "æķ°": 3114,
      "Control": 3115,
      "Del": 3116,
      "US": 3117,
      "75": 3118,
      "Ġright": 3119,
      "Ġpackage": 3120,
      "ived": 3121,
      "erge": 3122,
      "boolean": 3123,
      "<!": 3124,
      "Ġresp": 3125,
      "Non": 3126,
      "space": 3127,
      "ng": 3128,
      "Account": 3129,
      "Ġsprintf": 3130,
      "ABLE": 3131,
      "ferences": 3132,
      "redentials": 3133,
      "Ġdist": 3134,
      "ES": 3135,
      "itional": 3136,
      "Ġtotal": 3137,
      "press": 3138,
      "insert": 3139,
      "fin": 3140,
      "onth": 3141,
      "Tags": 3142,
      "Ġunset": 3143,
      "Ġreplace": 3144,
      "ollow": 3145,
      "wn": 3146,
      "Ġ-->": 3147,
      "æĸ": 3148,
      "Ġ$_": 3149,
      "irection": 3150,
      "Network": 3151,
      "Annotation": 3152,
      "manager": 3153,
      "ions": 3154,
      "INT": 3155,
      "Ġmark": 3156,
      "Ġcustom": 3157,
      "STR": 3158,
      "ä»": 3159,
      "direct": 3160,
      "Ġexpression": 3161,
      "ï¼Į": 3162,
      "Transaction": 3163,
      "Operation": 3164,
      "failed": 3165,
      "trace": 3166,
      "Validation": 3167,
      "Creates": 3168,
      "entication": 3169,
      "vlet": 3170,
      "Ġqueue": 3171,
      "Ġio": 3172,
      "ween": 3173,
      "Ġdepend": 3174,
      "generate": 3175,
      "ounds": 3176,
      "One": 3177,
      "builder": 3178,
      "Constraint": 3179,
      "ful": 3180,
      "card": 3181,
      "Ġtimeout": 3182,
      "ambda": 3183,
      "14": 3184,
      "required": 3185,
      "storage": 3186,
      "utable": 3187,
      "LOG": 3188,
      "Ġ})": 3189,
      "Mapping": 3190,
      "Ġstd": 3191,
      "oogle": 3192,
      "prop": 3193,
      "embers": 3194,
      "Struct": 3195,
      "ten": 3196,
      "ĠTo": 3197,
      "bit": 3198,
      "ĠHash": 3199,
      "Us": 3200,
      "Ġsome": 3201,
      "Ġchange": 3202,
      "ĠNot": 3203,
      "css": 3204,
      "dist": 3205,
      "tom": 3206,
      "Long": 3207,
      "Device": 3208,
      "umer": 3209,
      "Ġleft": 3210,
      "]|": 3211,
      "dr": 3212,
      "Ġgo": 3213,
      "Registry": 3214,
      "tool": 3215,
      "nodes": 3216,
      "ship": 3217,
      "ookie": 3218,
      "Web": 3219,
      "Ph": 3220,
      "ĠUser": 3221,
      "Ġop": 3222,
      "Ġax": 3223,
      ">(": 3224,
      "ĠIt": 3225,
      "zone": 3226,
      ")$": 3227,
      "ĠIm": 3228,
      "Ġstack": 3229,
      "Results": 3230,
      "MENT": 3231,
      "TA": 3232,
      "sv": 3233,
      "Ġdevice": 3234,
      "ĠDo": 3235,
      "ctionary": 3236,
      "Ġthread": 3237,
      "Ġregister": 3238,
      "Descriptor": 3239,
      "Domain": 3240,
      "Ġ'')": 3241,
      "GER": 3242,
      "ĠLog": 3243,
      "directory": 3244,
      "tokens": 3245,
      "Button": 3246,
      "ower": 3247,
      "scope": 3248,
      "izes": 3249,
      "ĠCollection": 3250,
      "19": 3251,
      "SQL": 3252,
      "success": 3253,
      "eners": 3254,
      "09": 3255,
      "romise": 3256,
      "cc": 3257,
      "\">": 3258,
      "ClientException": 3259,
      "24": 3260,
      "nel": 3261,
      "ites": 3262,
      ".',": 3263,
      "Box": 3264,
      "Script": 3265,
      "Ġmeta": 3266,
      "cfg": 3267,
      "Ġprevious": 3268,
      "etween": 3269,
      "ĠZ": 3270,
      "IC": 3271,
      "Ġoperation": 3272,
      "Ġinclude": 3273,
      "Ġassoci": 3274,
      "Red": 3275,
      "Tr": 3276,
      "Duration": 3277,
      "Ġallow": 3278,
      "Ġtmp": 3279,
      "ĊĠĠĠĠĠĠĠĠĠĠĠĠĠĠĠĠĠĠĠĠ": 3280,
      "FO": 3281,
      "thon": 3282,
      "<!--": 3283,
      "Ġyield": 3284,
      "DEFAULT": 3285,
      "Ġnormal": 3286,
      "Headers": 3287,
      "Find": 3288,
      "Ġcls": 3289,
      "atures": 3290,
      "clar": 3291,
      "Ġwrit": 3292,
      "system": 3293,
      "sprintf": 3294,
      "Limit": 3295,
      "generated": 3296,
      "Ġpar": 3297,
      "since": 3298,
      "head": 3299,
      "Vis": 3300,
      "Ġdown": 3301,
      "payload": 3302,
      "mine": 3303,
      "ict": 3304,
      "(\"/": 3305,
      "Ġlock": 3306,
      "Ġpreg": 3307,
      "each": 3308,
      "initial": 3309,
      "CTION": 3310,
      "ending": 3311,
      "PAT": 3312,
      "shape": 3313,
      "herit": 3314,
      "include": 3315,
      "CA": 3316,
      "Ġpy": 3317,
      "Nodes": 3318,
      "device": 3319,
      "åŃ": 3320,
      "Ġbecause": 3321,
      "POST": 3322,
      "Ġdat": 3323,
      "cimal": 3324,
      "rowser": 3325,
      "empt": 3326,
      "web": 3327,
      "utf": 3328,
      "Ġcreates": 3329,
      "ĠRem": 3330,
      "Top": 3331,
      "Ġstep": 3332,
      "Initial": 3333,
      "è¯": 3334,
      "strip": 3335,
      "First": 3336,
      "Cur": 3337,
      "ORM": 3338,
      "ead": 3339,
      "gnore": 3340,
      "Ġtags": 3341,
      "Inst": 3342,
      "println": 3343,
      "ĊĠĠĠĠĠĠĠĠĠĠĠĠĠĠĠĠĠĠĠĠĠĠĠĠĠĠĠĠĠĠĠĠĠĠĠĠĠĠĠĠĠĠĠĠĠĠĠĠĠĠĠĠĠĠĠĠ": 3344,
      "Ġph": 3345,
      "getM": 3346,
      "Gets": 3347,
      "Ġsubstr": 3348,
      "Ġxml": 3349,
      "asic": 3350,
      "ement": 3351,
      "goto": 3352,
      "Ġapplication": 3353,
      "Ġ'_": 3354,
      "Ġthey": 3355,
      "gistered": 3356,
      "_,": 3357,
      "////////////////": 3358,
      "Ġenv": 3359,
      "urity": 3360,
      "identifier": 3361,
      "Layout": 3362,
      "OPT": 3363,
      "Ġtitle": 3364,
      "Ġlocation": 3365,
      "resolve": 3366,
      "getClass": 3367,
      "So": 3368,
      "Ġauto": 3369,
      "ier": 3370,
      "derer": 3371,
      "ategy": 3372,
      "Comp": 3373,
      "Ġlines": 3374,
      ".\"": 3375,
      "Ġsure": 3376,
      "Ġnamespace": 3377,
      "Ġtrim": 3378,
      "imer": 3379,
      "cour": 3380,
      "Columns": 3381,
      "Project": 3382,
      "Execution": 3383,
      "olute": 3384,
      "Dest": 3385,
      "Pattern": 3386,
      "indexOf": 3387,
      "Ġar": 3388,
      "ability": 3389,
      "Title": 3390,
      "]:": 3391,
      "display": 3392,
      "np": 3393,
      "Extension": 3394,
      "Bean": 3395,
      "ĠHTTP": 3396,
      "Ġtransaction": 3397,
      "ĠQ": 3398,
      "ĠSdk": 3399,
      "Sum": 3400,
      "emit": 3401,
      "Resources": 3402,
      "Ġsystem": 3403,
      "etermine": 3404,
      "Raw": 3405,
      "points": 3406,
      "ways": 3407,
      "Ġvis": 3408,
      ".(": 3409,
      "menu": 3410,
      "PRE": 3411,
      "parameter": 3412,
      "Bucket": 3413,
      "ĠSdkClientException": 3414,
      "ĠĠĠĠĠĠĠĠĠĠ": 3415,
      "cell": 3416,
      "ĠHttp": 3417,
      "ĠInteger": 3418,
      "Current": 3419,
      "andlers": 3420,
      "Ð½": 3421,
      "Ġoriginal": 3422,
      "my": 3423,
      "Ġ[$": 3424,
      "Ġ],": 3425,
      "product": 3426,
      "Ġtx": 3427,
      "Use": 3428,
      "ĠPHP": 3429,
      "substring": 3430,
      "33": 3431,
      "apply": 3432,
      "imes": 3433,
      "Ġsum": 3434,
      "Ġ<-": 3435,
      "Ġfetch": 3436,
      "Ġ'-": 3437,
      "ily": 3438,
      "grade": 3439,
      "Ġdisplay": 3440,
      "eme": 3441,
      "Ġwant": 3442,
      "Ġheight": 3443,
      "icate": 3444,
      "ĠValidate": 3445,
      "Ġextract": 3446,
      "oice": 3447,
      "Ġaccount": 3448,
      "ither": 3449,
      "OM": 3450,
      "account": 3451,
      "Ġconsole": 3452,
      "ĠAtt": 3453,
      "HE": 3454,
      "Ġ\"'": 3455,
      "Ġspecific": 3456,
      "Serial": 3457,
      "acy": 3458,
      "ialog": 3459,
      "Ġinsert": 3460,
      "<?>": 3461,
      "Boolean": 3462,
      "ĊĠĠĠĠĠĠĠĠĠĠĠĠĠĠĠĠĠĠĠĠĠĠĠĠĠĠĠĠĠĠĠĠĠĠĠĠĠĠĠ": 3463,
      "lta": 3464,
      "Ġexpected": 3465,
      "dered": 3466,
      "ouse": 3467,
      "words": 3468,
      "ĠOption": 3469,
      "encies": 3470,
      "addr": 3471,
      ")[": 3472,
      "Ġresources": 3473,
      "iant": 3474,
      "voke": 3475,
      "VE": 3476,
      "ĠNo": 3477,
      "Each": 3478,
      "Ġorg": 3479,
      "Ġroute": 3480,
      "]*": 3481,
      "Ġskip": 3482,
      "ui": 3483,
      "(['": 3484,
      "Ġexplode": 3485,
      "edi": 3486,
      "Required": 3487,
      "iteral": 3488,
      "Alias": 3489,
      "cr": 3490,
      "notations": 3491,
      "Ġ7": 3492,
      "Ġcannot": 3493,
      "FILE": 3494,
      "Ġrequire": 3495,
      "verter": 3496,
      "]+": 3497,
      "Ġdirect": 3498,
      "umb": 3499,
      "55": 3500,
      "Generator": 3501,
      "eric": 3502,
      "gor": 3503,
      "XML": 3504,
      "Proxy": 3505,
      "socket": 3506,
      "normal": 3507,
      "Ġadded": 3508,
      "eer": 3509,
      ".');": 3510,
      "||": 3511,
      "paths": 3512,
      "Db": 3513,
      "aml": 3514,
      "dim": 3515,
      "zip": 3516,
      "Ġcontains": 3517,
      "Ġexecute": 3518,
      "rest": 3519,
      "DateTime": 3520,
      "database": 3521,
      "Volume": 3522,
      "Custom": 3523,
      "Window": 3524,
      "ves": 3525,
      "Ġob": 3526,
      "Only": 3527,
      "plates": 3528,
      "ges": 3529,
      "Tx": 3530,
      "span": 3531,
      "è¿": 3532,
      ")}": 3533,
      "engine": 3534,
      "book": 3535,
      "ĠSh": 3536,
      "UB": 3537,
      "rimary": 3538,
      "Ġretrie": 3539,
      "Ġscript": 3540,
      "cp": 3541,
      "Ġreflect": 3542,
      "gen": 3543,
      "Op": 3544,
      "Tracing": 3545,
      "pol": 3546,
      "Ġsys": 3547,
      "OD": 3548,
      "Ġshow": 3549,
      "ÑĢ": 3550,
      "Ġhttps": 3551,
      "Enum": 3552,
      "ployment": 3553,
      "Ġ]);": 3554,
      "atal": 3555,
      "sm": 3556,
      "pli": 3557,
      "convert": 3558,
      "Ġcell": 3559,
      "hook": 3560,
      "Ġtwo": 3561,
      "configuration": 3562,
      "ynam": 3563,
      "Elements": 3564,
      "ection": 3565,
      "]]": 3566,
      "Ġdescription": 3567,
      "ĠIllegalArgumentException": 3568,
      "auto": 3569,
      "Ġchunk": 3570,
      "Ġour": 3571,
      "gments": 3572,
      "PER": 3573,
      "WS": 3574,
      "edit": 3575,
      "gl": 3576,
      "tered": 3577,
      "Ġ``": 3578,
      "Ġwait": 3579,
      "stats": 3580,
      "BU": 3581,
      "Ġdone": 3582,
      "vers": 3583,
      "å®": 3584,
      "asc": 3585,
      "adding": 3586,
      "board": 3587,
      "gorith": 3588,
      "Ġimplode": 3589,
      "main": 3590,
      "Exp": 3591,
      "Ġbind": 3592,
      "azz": 3593,
      "Ġ(\"": 3594,
      "Ġcontain": 3595,
      "Ġmatches": 3596,
      "classes": 3597,
      "{\"": 3598,
      "čĊĠĠĠĠĠĠĠĠ": 3599,
      "Conn": 3600,
      "global": 3601,
      "ping": 3602,
      "groups": 3603,
      "culate": 3604,
      "pped": 3605,
      "'].": 3606,
      "ural": 3607,
      "Ġevents": 3608,
      "ced": 3609,
      "roy": 3610,
      "lig": 3611,
      "PC": 3612,
      "Ġ,": 3613,
      "shift": 3614,
      "Thread": 3615,
      "Ġthrough": 3616,
      "olution": 3617,
      "aly": 3618,
      "double": 3619,
      ".(*": 3620,
      "angle": 3621,
      "InvalidArgumentException": 3622,
      "EClass": 3623,
      "Pan": 3624,
      "QU": 3625,
      "æľ": 3626,
      "Ġdoesn": 3627,
      "losure": 3628,
      "vars": 3629,
      "getType": 3630,
      "Relation": 3631,
      "?(": 3632,
      "graph": 3633,
      "Agent": 3634,
      "ision": 3635,
      "Ġopt": 3636,
      "cook": 3637,
      "network": 3638,
      "Ġloop": 3639,
      "Mark": 3640,
      "mb": 3641,
      "ĠNULL": 3642,
      "Stats": 3643,
      "Ġidx": 3644,
      "IF": 3645,
      "ifiers": 3646,
      "}/": 3647,
      "eep": 3648,
      "import": 3649,
      "Ġattr": 3650,
      "Ġfinally": 3651,
      "RA": 3652,
      "button": 3653,
      "Ġremote": 3654,
      "month": 3655,
      "swith": 3656,
      "Ġexp": 3657,
      "oves": 3658,
      "utor": 3659,
      "icle": 3660,
      "Ġ[])": 3661,
      "igest": 3662,
      "wner": 3663,
      "ĠXML": 3664,
      "fp": 3665,
      "]=": 3666,
      "Ġwindow": 3667,
      "Ġsection": 3668,
      "writ": 3669,
      "assign": 3670,
      "Ġ(\\": 3671,
      "Ġdebug": 3672,
      "AX": 3673,
      "only": 3674,
      "respon": 3675,
      "ped": 3676,
      "lector": 3677,
      "ometry": 3678,
      "22": 3679,
      "Author": 3680,
      "folder": 3681,
      "Details": 3682,
      "mail": 3683,
      "Password": 3684,
      "Ġnetwork": 3685,
      "used": 3686,
      "Ġstorage": 3687,
      "Ġsplit": 3688,
      "escape": 3689,
      "ĠDE": 3690,
      "Ð¾Ð": 3691,
      "ha": 3692,
      "profile": 3693,
      "media": 3694,
      "ragment": 3695,
      "17": 3696,
      "Active": 3697,
      "vm": 3698,
      "amount": 3699,
      "'=>": 3700,
      "Ġclean": 3701,
      "ĠTrans": 3702,
      "Ġwriter": 3703,
      "ose": 3704,
      "ifest": 3705,
      "(',": 3706,
      "prototype": 3707,
      "ateway": 3708,
      "scribe": 3709,
      "dev": 3710,
      "Ġframe": 3711,
      "akes": 3712,
      "Ġ[],": 3713,
      "ens": 3714,
      "Ġencoding": 3715,
      "Has": 3716,
      "Space": 3717,
      "ĠĠĠĠĠĠĠĠĠĠĠĠ": 3718,
      "Ġuri": 3719,
      "Ġlogging": 3720,
      "Ġdif": 3721,
      ")));": 3722,
      "Ġmain": 3723,
      "Driver": 3724,
      "lip": 3725,
      "Ġtransform": 3726,
      "Ġundefined": 3727,
      "wd": 3728,
      "ORD": 3729,
      "extension": 3730,
      "slice": 3731,
      "ended": 3732,
      "icode": 3733,
      "Ġput": 3734,
      "Ġsql": 3735,
      "sample": 3736,
      "report": 3737,
      "lat": 3738,
      "driver": 3739,
      "Folder": 3740,
      "ĠConvert": 3741,
      "etrie": 3742,
      "Ġmethods": 3743,
      "chunk": 3744,
      "Ġinternal": 3745,
      "Ġcould": 3746,
      "timestamp": 3747,
      "Ġcolumns": 3748,
      "Ġcontaining": 3749,
      "px": 3750,
      "provider": 3751,
      "Ġparsed": 3752,
      "Ġpayload": 3753,
      "safe": 3754,
      "Locale": 3755,
      "expr": 3756,
      "Graph": 3757,
      "ATOR": 3758,
      "writer": 3759,
      "unit": 3760,
      "resses": 3761,
      "Chain": 3762,
      "reference": 3763,
      "Ġfeature": 3764,
      "iddleware": 3765,
      "TracingEnabled": 3766,
      "Email": 3767,
      "original": 3768,
      ".\")": 3769,
      "alk": 3770,
      "course": 3771,
      "Float": 3772,
      "Ġip": 3773,
      "font": 3774,
      "Ġconf": 3775,
      "batch": 3776,
      "Ġapply": 3777,
      "Atom": 3778,
      "isAny": 3779,
      "policy": 3780,
      "Ġ{'": 3781,
      "Av": 3782,
      "achment": 3783,
      "Wrapper": 3784,
      "Ġprivate": 3785,
      "Ġwithout": 3786,
      "Profile": 3787,
      "ators": 3788,
      "Ġ(_": 3789,
      "substr": 3790,
      "Ġlike": 3791,
      "ĠSQL": 3792,
      "Adds": 3793,
      "Identity": 3794,
      "ĠFor": 3795,
      "ĠTime": 3796,
      "typeof": 3797,
      "isAnyTracingEnabled": 3798,
      "eline": 3799,
      "events": 3800,
      "ude": 3801,
      "term": 3802,
      "Ġbetween": 3803,
      "Ver": 3804,
      "ĊĠĠĠĠĠĠĠĠĊĊĠĠĠĠĠĠĠ": 3805,
      "Ġresolve": 3806,
      "si": 3807,
      "upt": 3808,
      "Events": 3809,
      "Html": 3810,
      "ĠInput": 3811,
      "gorithm": 3812,
      "Ġ!$": 3813,
      "Ġlistener": 3814,
      "aint": 3815,
      "&&": 3816,
      "uc": 3817,
      "Ignore": 3818,
      "pool": 3819,
      "ĠParam": 3820,
      "Messages": 3821,
      "uter": 3822,
      "Kind": 3823,
      "transform": 3824,
      "Ġfn": 3825,
      "Ġrows": 3826,
      "AGE": 3827,
      "#{": 3828,
      "found": 3829,
      "reset": 3830,
      "Cell": 3831,
      "ĠQuery": 3832,
      "Ġsynchron": 3833,
      "flags": 3834,
      "Condition": 3835,
      "Connect": 3836,
      "Ġreport": 3837,
      "created": 3838,
      "ĠApp": 3839,
      "andid": 3840,
      "Ġdecode": 3841,
      "ik": 3842,
      "Ġnet": 3843,
      "Ġmessages": 3844,
      "CK": 3845,
      "Ġoc": 3846,
      "Sync": 3847,
      "Ñģ": 3848,
      "åħ": 3849,
      "gine": 3850,
      "loaded": 3851,
      "uplic": 3852,
      "Ġsample": 3853,
      "ĠField": 3854,
      "ube": 3855,
      "crement": 3856,
      "CP": 3857,
      "30": 3858,
      "bucket": 3859,
      "Ġreset": 3860,
      "preg": 3861,
      "Ġbit": 3862,
      "irt": 3863,
      "Ġassign": 3864,
      "clean": 3865,
      "Ġ[]*": 3866,
      "ca": 3867,
      "ĠStringBuilder": 3868,
      "ClassName": 3869,
      "NON": 3870,
      "diff": 3871,
      "mat": 3872,
      "80": 3873,
      "Wrap": 3874,
      "slug": 3875,
      "Ġ9": 3876,
      "Ġflag": 3877,
      "messages": 3878,
      "ords": 3879,
      "getKey": 3880,
      "Ġalso": 3881,
      "ZE": 3882,
      "member": 3883,
      "\"));": 3884,
      "Send": 3885,
      "Register": 3886,
      "Ġ&$": 3887,
      "dio": 3888,
      "chain": 3889,
      "Ġsince": 3890,
      "HER": 3891,
      "Ġ++": 3892,
      "pag": 3893,
      "SET": 3894,
      "UTF": 3895,
      "curity": 3896,
      "gp": 3897,
      "ĠĠĠĠĠĠĠĠĠĠĠĠĠĠĠ": 3898,
      "cast": 3899,
      "Ġ16": 3900,
      "bose": 3901,
      "feature": 3902,
      "https": 3903,
      "ĠDefault": 3904,
      "Fail": 3905,
      "ĠParse": 3906,
      "Ġgraph": 3907,
      "Interval": 3908,
      "Left": 3909,
      "iterator": 3910,
      "force": 3911,
      "OF": 3912,
      "CTOR": 3913,
      "Ġpair": 3914,
      "ĠGener": 3915,
      "ranch": 3916,
      "Pod": 3917,
      "çĶ": 3918,
      "/',": 3919,
      "Ġunt": 3920,
      "COL": 3921,
      "supported": 3922,
      "Ġagain": 3923,
      "Ġparts": 3924,
      "Dist": 3925,
      "Ġsupported": 3926,
      "quote": 3927,
      "Wh": 3928,
      "Ġsocket": 3929,
      "ottom": 3930,
      "Product": 3931,
      "Ġ;": 3932,
      "atted": 3933,
      "warning": 3934,
      "forEach": 3935,
      "Ġextension": 3936,
      "Groups": 3937,
      "after": 3938,
      "filters": 3939,
      "VALUE": 3940,
      "Ġtokens": 3941,
      "`.": 3942,
      "Pack": 3943,
      "Ġ':": 3944,
      "anner": 3945,
      "rag": 3946,
      "ĠEvent": 3947,
      "acity": 3948,
      "ration": 3949,
      "Auto": 3950,
      "ĠDB": 3951,
      "olved": 3952,
      "Ġrelation": 3953,
      "Step": 3954,
      "Ġactive": 3955,
      "ithub": 3956,
      "PHP": 3957,
      "Ġendpoint": 3958,
      "TIME": 3959,
      "Ġtrace": 3960,
      "redirect": 3961,
      "PATH": 3962,
      "extra": 3963,
      "ĠHTML": 3964,
      "pose": 3965,
      "Ġsee": 3966,
      "tolower": 3967,
      "window": 3968,
      ".\",": 3969,
      "irtual": 3970,
      "Ind": 3971,
      "Admin": 3972,
      "XT": 3973,
      "QUE": 3974,
      "agent": 3975,
      "asure": 3976,
      "()),": 3977,
      "Day": 3978,
      "mount": 3979,
      "Ġcommon": 3980,
      "Ġunless": 3981,
      "ling": 3982,
      "ibility": 3983,
      "Ġ100": 3984,
      "ole": 3985,
      "loader": 3986,
      "chan": 3987,
      "Language": 3988,
      "mask": 3989,
      "Ġbucket": 3990,
      "ACK": 3991,
      "reshold": 3992,
      "SO": 3993,
      "Errors": 3994,
      "prev": 3995,
      "rules": 3996,
      "Xml": 3997,
      "expression": 3998,
      "redicate": 3999,
      "fill": 4000,
      "TraceComponent": 4001,
      "desc": 4002,
      "Ġbinary": 4003,
      "owner": 4004,
      "layout": 4005,
      "serialize": 4006,
      "Display": 4007,
      "Menu": 4008,
      "orter": 4009,
      "proxy": 4010,
      "users": 4011,
      "ĠOn": 4012,
      "Ġdomain": 4013,
      "Transform": 4014,
      "Pointer": 4015,
      "NOT": 4016,
      "ually": 4017,
      "Exists": 4018,
      "Short": 4019,
      "Ġcomple": 4020,
      "Sort": 4021,
      "getInstance": 4022,
      "erson": 4023,
      "Ġinstead": 4024,
      "igin": 4025,
      "Uint": 4026,
      "help": 4027,
      "Ġprob": 4028,
      "invalidParams": 4029,
      "DS": 4030,
      "Ne": 4031,
      "subject": 4032,
      "/%": 4033,
      "acters": 4034,
      "Ġrepresentation": 4035,
      "ĠMessage": 4036,
      "Ġsupport": 4037,
      "sheet": 4038,
      "Ġcluster": 4039,
      "login": 4040,
      ":\"": 4041,
      "ORT": 4042,
      "Ġcb": 4043,
      "amily": 4044,
      "SION": 4045,
      "arm": 4046,
      "adoc": 4047,
      "ixel": 4048,
      "ops": 4049,
      "ifc": 4050,
      "IO": 4051,
      "Double": 4052,
      "Ġbound": 4053,
      "Ġvalidation": 4054,
      "Ġneeded": 4055,
      "SERVER": 4056,
      "ynt": 4057,
      "internal": 4058,
      "Ġallowed": 4059,
      "enter": 4060,
      "cret": 4061,
      "ĠAs": 4062,
      "Ġbeing": 4063,
      "condition": 4064,
      "cursive": 4065,
      "Ġsent": 4066,
      "Down": 4067,
      "Ġ{};": 4068,
      "utdown": 4069,
      "Ġloc": 4070,
      "Ġpool": 4071,
      "Ġunit": 4072,
      "USER": 4073,
      "ĠIP": 4074,
      "remote": 4075,
      "Ġperform": 4076,
      "uint": 4077,
      "INE": 4078,
      "bound": 4079,
      "Ġ12": 4080,
      "Ġchain": 4081,
      "pid": 4082,
      "Ġconnect": 4083,
      "ynamic": 4084,
      "Bl": 4085,
      "ĠUpdate": 4086,
      "Ġextends": 4087,
      "Ġtuple": 4088,
      "Adapter": 4089,
      "Ġdim": 4090,
      "objects": 4091,
      "ROM": 4092,
      "encoding": 4093,
      "Security": 4094,
      "Ġbo": 4095,
      "ĠEnt": 4096,
      "TO": 4097,
      "Ġabout": 4098,
      "[-": 4099,
      "depend": 4100,
      "ĊĠĠĠĠĠĠĠĠĠĠĠĠĠĠĠĠĠĠĠĠĠ": 4101,
      "Ġweb": 4102,
      "Jav": 4103,
      "itude": 4104,
      "Ġidentifier": 4105,
      "Ġrequests": 4106,
      "Ġsorted": 4107,
      "AS": 4108,
      "off": 4109,
      "widget": 4110,
      "Ġeither": 4111,
      "rec": 4112,
      "actions": 4113,
      "CS": 4114,
      "Ġconversion": 4115,
      "Children": 4116,
      "ĠET": 4117,
      "short": 4118,
      "};": 4119,
      "igration": 4120,
      "light": 4121,
      "lex": 4122,
      "cd": 4123,
      "Engine": 4124,
      "Ġprovider": 4125,
      "Ġextra": 4126,
      "Ġday": 4127,
      "bsolute": 4128,
      "precated": 4129,
      "cessed": 4130,
      "InputStream": 4131,
      "Ġrole": 4132,
      "čĊčĊĉ": 4133,
      "Timestamp": 4134,
      ":]": 4135,
      "verage": 4136,
      "Split": 4137,
      "Ġfs": 4138,
      "iss": 4139,
      "Ġcorrect": 4140,
      "elements": 4141,
      "Checks": 4142,
      ".<": 4143,
      "Art": 4144,
      "ĠIter": 4145,
      "Ġå": 4146,
      "After": 4147,
      "Public": 4148,
      "Ġrandom": 4149,
      "Ġfollow": 4150,
      "ĊĊĠĠĠĠĠĠĠĠĠĠĠĠĠĠĠĠĠĠĠĠĠĠĠ": 4151,
      "Ġremoved": 4152,
      "patcher": 4153,
      "][$": 4154,
      "sr": 4155,
      "Batch": 4156,
      "grid": 4157,
      "ATA": 4158,
      "Ġchildren": 4159,
      "Ġclear": 4160,
      "Assign": 4161,
      "}}": 4162,
      "onfirm": 4163,
      "real": 4164,
      "ĠName": 4165,
      "just": 4166,
      "Ġ[\"": 4167,
      "FS": 4168,
      "allow": 4169,
      "ĠJson": 4170,
      "validator": 4171,
      "Zone": 4172,
      "Ġdefinition": 4173,
      "Member": 4174,
      "factory": 4175,
      "ases": 4176,
      "vide": 4177,
      "Ġbatch": 4178,
      "Encode": 4179,
      "(__": 4180,
      "LECT": 4181,
      "Comment": 4182,
      "Ġcontents": 4183,
      "Ġ(($": 4184,
      "Ġæ": 4185,
      "Lower": 4186,
      "year": 4187,
      "Socket": 4188,
      "Me": 4189,
      "ĠPath": 4190,
      "ĠRead": 4191,
      "Ġpop": 4192,
      "ĠForm": 4193,
      "Abstract": 4194,
      "ront": 4195,
      "ene": 4196,
      "Validator": 4197,
      ".*": 4198,
      "Ġunder": 4199,
      "Ġpk": 4200,
      "']:": 4201,
      "Ġlayer": 4202,
      "Ġman": 4203,
      "Render": 4204,
      "Ġcontroller": 4205,
      "Ġmultiple": 4206,
      "','": 4207,
      "mapping": 4208,
      "Sp": 4209,
      "Ġproxy": 4210,
      "scal": 4211,
      "ĊĠĠĠĠĠĠĠĠĠĠ": 4212,
      "cluded": 4213,
      "gb": 4214,
      "cap": 4215,
      "iver": 4216,
      "rowable": 4217,
      "LASS": 4218,
      "yntax": 4219,
      "EXT": 4220,
      "Ġemail": 4221,
      "ĠAl": 4222,
      "(/": 4223,
      "Widget": 4224,
      "iltered": 4225,
      "ç»": 4226,
      "Ġrunning": 4227,
      "ĠPre": 4228,
      "Flag": 4229,
      "img": 4230,
      "Ġreader": 4231,
      ",$": 4232,
      "commit": 4233,
      "=%": 4234,
      "Ġjoin": 4235,
      "Ġsecond": 4236,
      "RI": 4237,
      "ĠRemove": 4238,
      "Ġpossible": 4239,
      ")):": 4240,
      "Ġet": 4241,
      "Ġevery": 4242,
      "scale": 4243,
      "Term": 4244,
      "VI": 4245,
      "Ġ>>": 4246,
      "rip": 4247,
      "install": 4248,
      "čĊĠĠĠĠĠĠĠĠĠĠĠĠĠĠĠĠĠĠĠĠĠĠĠ": 4249,
      "ense": 4250,
      "Ġpaths": 4251,
      "anization": 4252,
      "Ġdet": 4253,
      "oly": 4254,
      "sen": 4255,
      "Category": 4256,
      "Ġoptional": 4257,
      "35": 4258,
      "Ġassociated": 4259,
      "Stop": 4260,
      "mu": 4261,
      "stmt": 4262,
      "ribe": 4263,
      "Ġdictionary": 4264,
      "Pair": 4265,
      "Ġmissing": 4266,
      "Full": 4267,
      "ARN": 4268,
      "Ġunique": 4269,
      "HTML": 4270,
      "()).": 4271,
      "Selector": 4272,
      "cb": 4273,
      "ĠIN": 4274,
      "(?": 4275,
      "Ġmatching": 4276,
      "inherit": 4277,
      "publish": 4278,
      "Ġterm": 4279,
      "Ġcharacter": 4280,
      "Ġ([]": 4281,
      "endpoint": 4282,
      ":`": 4283,
      "attrs": 4284,
      "medi": 4285,
      "ĠResource": 4286,
      "eam": 4287,
      "spect": 4288,
      "Ġecho": 4289,
      "LETE": 4290,
      "DATE": 4291,
      "Warnings": 4292,
      "Unmarshal": 4293,
      "alth": 4294,
      "Ġentries": 4295,
      "Ġfolder": 4296,
      "GP": 4297,
      "before": 4298,
      ".')": 4299,
      "Resolver": 4300,
      "allback": 4301,
      "common": 4302,
      "06": 4303,
      "checked": 4304,
      "Ġ')": 4305,
      "eries": 4306,
      "ferent": 4307,
      "Javadoc": 4308,
      "NE": 4309,
      "aved": 4310,
      "DIR": 4311,
      "Ġrules": 4312,
      "xf": 4313,
      "ĠRuntimeException": 4314,
      "prepare": 4315,
      "jection": 4316,
      "Ġvariables": 4317,
      "ategories": 4318,
      "ALL": 4319,
      "Cloud": 4320,
      "Ġpresent": 4321,
      "ipeline": 4322,
      "question": 4323,
      "track": 4324,
      "Ġwithin": 4325,
      "ives": 4326,
      "Ġstatement": 4327,
      "Extract": 4328,
      "Ġexternal": 4329,
      "Could": 4330,
      "secret": 4331,
      "è¡": 4332,
      "Arn": 4333,
      "ĠOut": 4334,
      "HERE": 4335,
      "embed": 4336,
      "Ġbl": 4337,
      "Remote": 4338,
      "Retrie": 4339,
      "Ġprop": 4340,
      "'][": 4341,
      "Ġsequence": 4342,
      "fail": 4343,
      "Ġyour": 4344,
      "Init": 4345,
      "Ġusername": 4346,
      "Right": 4347,
      "Flags": 4348,
      "operation": 4349,
      "strap": 4350,
      "Expr": 4351,
      "Sequence": 4352,
      "flag": 4353,
      "Ġexit": 4354,
      "axis": 4355,
      "}\"": 4356,
      "ested": 4357,
      "Ġsynchronized": 4358,
      "Ġ'{": 4359,
      "Inv": 4360,
      "Ġactual": 4361,
      "<>();": 4362,
      "ribution": 4363,
      "Ġaccept": 4364,
      "serv": 4365,
      "Layer": 4366,
      "Rules": 4367,
      "(){": 4368,
      "Metric": 4369,
      "ĠURI": 4370,
      "Ġcomment": 4371,
      "Matrix": 4372,
      "Ġ'/'": 4373,
      "conv": 4374,
      "merce": 4375,
      "getAttribute": 4376,
      "xff": 4377,
      ">';": 4378,
      "Ġselected": 4379,
      "Global": 4380,
      "ĠModel": 4381,
      "upper": 4382,
      "CHE": 4383,
      "skip": 4384,
      "Ġtheir": 4385,
      "Total": 4386,
      "Vert": 4387,
      "xe": 4388,
      "SIZE": 4389,
      "Are": 4390,
      "wrap": 4391,
      "extend": 4392,
      "parsed": 4393,
      "IOException": 4394,
      "Ġ'\\\\": 4395,
      "Segment": 4396,
      "ĠLoc": 4397,
      "Upload": 4398,
      "Secret": 4399,
      "Parts": 4400,
      "Ġprofile": 4401,
      "labels": 4402,
      "rtype": 4403,
      "PARAM": 4404,
      "Ġwarn": 4405,
      "Ġ'$": 4406,
      "ĠHE": 4407,
      "alys": 4408,
      "Fin": 4409,
      "Ġmapping": 4410,
      "Ġchanged": 4411,
      "ekday": 4412,
      "ãĢ": 4413,
      "alled": 4414,
      "ĠArgs": 4415,
      "Cap": 4416,
      "Insert": 4417,
      "Paths": 4418,
      "eometry": 4419,
      "models": 4420,
      "pod": 4421,
      "'re": 4422,
      "Edit": 4423,
      "('%": 4424,
      "Idx": 4425,
      "Ġsim": 4426,
      "34": 4427,
      "Test": 4428,
      "tab": 4429,
      "repo": 4430,
      "getPro": 4431,
      "inte": 4432,
      "aim": 4433,
      "selected": 4434,
      "td": 4435,
      "Feature": 4436,
      "Ġstats": 4437,
      "isEntry": 4438,
      "argin": 4439,
      "Attr": 4440,
      "Counter": 4441,
      "SSION": 4442,
      "isEntryEnabled": 4443,
      "Simple": 4444,
      "isting": 4445,
      "Ġreal": 4446,
      "Rows": 4447,
      "weight": 4448,
      "velo": 4449,
      "\\\"\\\\": 4450,
      "\\'": 4451,
      "NotFoundException": 4452,
      "Ġmatrix": 4453,
      "MM": 4454,
      "shop": 4455,
      "Ġlanguage": 4456,
      "alpha": 4457,
      "å¤": 4458,
      "Bag": 4459,
      "ulate": 4460,
      "pb": 4461,
      "Ġstrlen": 4462,
      "export": 4463,
      "36": 4464,
      "ĠRE": 4465,
      "ĠErr": 4466,
      "Save": 4467,
      "Constraints": 4468,
      "seq": 4469,
      "oft": 4470,
      "RuntimeException": 4471,
      "bundle": 4472,
      "================================": 4473,
      "Ġslice": 4474,
      "](": 4475,
      "uring": 4476,
      "ifact": 4477,
      "Ġshort": 4478,
      "Tool": 4479,
      "flush": 4480,
      "sWith": 4481,
      "Ġdestination": 4482,
      "Ġsl": 4483,
      "enabled": 4484,
      "operator": 4485,
      "Depend": 4486,
      "getProperty": 4487,
      "ian": 4488,
      "unique": 4489,
      "Generate": 4490,
      "Put": 4491,
      "itive": 4492,
      "ĠOptional": 4493,
      "Ġalways": 4494,
      "vt": 4495,
      "cookie": 4496,
      "claration": 4497,
      "seconds": 4498,
      "Ġmerge": 4499,
      "ĠDelete": 4500,
      "ĠAND": 4501,
      "void": 4502,
      "thread": 4503,
      "Ġchanges": 4504,
      "Certificate": 4505,
      "holder": 4506,
      "defaults": 4507,
      "inner": 4508,
      "=(": 4509,
      "primary": 4510,
      "ITY": 4511,
      "require": 4512,
      "Ġplace": 4513,
      "Ġupdated": 4514,
      "Ġcoord": 4515,
      "Ġtimestamp": 4516,
      "Ġbutton": 4517,
      "vc": 4518,
      "Ġ{$": 4519,
      "ĠIs": 4520,
      "pass": 4521,
      "100": 4522,
      "Ġprot": 4523,
      "datetime": 4524,
      "Ġspace": 4525,
      "Font": 4526,
      "ycle": 4527,
      "($_": 4528,
      "LOW": 4529,
      "BO": 4530,
      "Ġimplements": 4531,
      "Ġuntil": 4532,
      "UI": 4533,
      "ocus": 4534,
      "Strategy": 4535,
      "56": 4536,
      "havi": 4537,
      "layer": 4538,
      "Permission": 4539,
      "Ġ-=": 4540,
      "modules": 4541,
      "vas": 4542,
      "chedul": 4543,
      "OutputStream": 4544,
      "leep": 4545,
      "Ġenvironment": 4546,
      "PARATOR": 4547,
      "Ġcfg": 4548,
      "ffect": 4549,
      "then": 4550,
      "Ġenumer": 4551,
      "vals": 4552,
      "Ġ//$": 4553,
      "archive": 4554,
      "gistration": 4555,
      "Ġct": 4556,
      "apped": 4557,
      "ĠToken": 4558,
      "Wait": 4559,
      "ĠOpen": 4560,
      "åıĸ": 4561,
      "transaction": 4562,
      "STAT": 4563,
      "depth": 4564,
      "available": 4565,
      "Ġcondition": 4566,
      "Servlet": 4567,
      "æĸĩ": 4568,
      "ĠMethod": 4569,
      "xb": 4570,
      "fic": 4571,
      "region": 4572,
      "plicit": 4573,
      "Ġmember": 4574,
      "github": 4575,
      "www": 4576,
      "Orig": 4577,
      "SEPARATOR": 4578,
      "åŃĹ": 4579,
      "æį": 4580,
      "Multi": 4581,
      "ĠUse": 4582,
      "zer": 4583,
      "Ġzero": 4584,
      "CODE": 4585,
      "bers": 4586,
      "Sql": 4587,
      "Ġappro": 4588,
      "Ġpoints": 4589,
      "Ġprev": 4590,
      "lap": 4591,
      "Ġgr": 4592,
      "symbol": 4593,
      "Snapshot": 4594,
      "ĊĠĠĠĠĠĠĠĠĠĠĠĠĠĠĠĠĠĠĠĠĠĠ": 4595,
      "/{": 4596,
      "aj": 4597,
      "pair": 4598,
      "čĊĉĉĉĉĉ": 4599,
      "Env": 4600,
      "å¯": 4601,
      "sume": 4602,
      "uuid": 4603,
      "Import": 4604,
      "Ġ#{": 4605,
      "while": 4606,
      "sk": 4607,
      ")|": 4608,
      "ĠProtocol": 4609,
      "Sw": 4610,
      "ĠElement": 4611,
      "extract": 4612,
      "Ġconfigured": 4613,
      "startswith": 4614,
      "cessary": 4615,
      "END": 4616,
      "40": 4617,
      "hex": 4618,
      "Ġregistered": 4619,
      "sn": 4620,
      "sb": 4621,
      "ĠĠĠĠĠĠĠĠĠĠĠĠĠ": 4622,
      "Ġsm": 4623,
      "Media": 4624,
      "getRequest": 4625,
      "OUT": 4626,
      "onitor": 4627,
      "\"])": 4628,
      "llum": 4629,
      "ĠClient": 4630,
      "uction": 4631,
      "Execute": 4632,
      "Unknown": 4633,
      "Rece": 4634,
      "AND": 4635,
      "Ġcursor": 4636,
      "unch": 4637,
      "'][$": 4638,
      "sys": 4639,
      "Ġensure": 4640,
      "æĪ": 4641,
      "ilt": 4642,
      "async": 4643,
      "Ġ));": 4644,
      "gest": 4645,
      "isDebug": 4646,
      "Ġkeep": 4647,
      "MAX": 4648,
      "cursor": 4649,
      "Ð»": 4650,
      "Ġrequested": 4651,
      "Ġlocale": 4652,
      "Ġproto": 4653,
      "Modified": 4654,
      "ĠService": 4655,
      "Conf": 4656,
      "Ġident": 4657,
      "Ġgrid": 4658,
      "()]": 4659,
      "dom": 4660,
      "ĠAttribute": 4661,
      "SP": 4662,
      "Success": 4663,
      "ĊĠĠĠĠĠĠĠĠĠĠĠĠĠĠĠĠĠĠ": 4664,
      "lluminate": 4665,
      "è®": 4666,
      "Ġindent": 4667,
      "control": 4668,
      "fileName": 4669,
      "256": 4670,
      "Describe": 4671,
      "Ġsetting": 4672,
      "CTORY": 4673,
      "ASE": 4674,
      "CLASS": 4675,
      "Ġcontrol": 4676,
      "FIX": 4677,
      "emon": 4678,
      "Destination": 4679,
      "ident": 4680,
      "valueOf": 4681,
      "Suppress": 4682,
      "Fetch": 4683,
      "const": 4684,
      "epCopy": 4685,
      "åĬ": 4686,
      "Ġbundle": 4687,
      "Ġauthor": 4688,
      "alle": 4689,
      "ĠSib": 4690,
      "repository": 4691,
      "Encoding": 4692,
      "Ġchecks": 4693,
      "Ġcore": 4694,
      "scriptor": 4695,
      "Ġsite": 4696,
      "Ġflags": 4697,
      "getConfig": 4698,
      "istics": 4699,
      "ANCE": 4700,
      "accept": 4701,
      "Ċĉĉĉĉĉĉĉĉ": 4702,
      "look": 4703,
      "Ġgra": 4704,
      "Ġsignature": 4705,
      "reader": 4706,
      "second": 4707,
      "Ġ\"\";": 4708,
      "ĠBase": 4709,
      "cached": 4710,
      "Ap": 4711,
      "QUEST": 4712,
      "ä»¶": 4713,
      "leton": 4714,
      "cas": 4715,
      "Ġclasses": 4716,
      "ĠAuth": 4717,
      "allowed": 4718,
      "theme": 4719,
      "\"],": 4720,
      "udio": 4721,
      "translate": 4722,
      "mar": 4723,
      "perations": 4724,
      "Ġ\")": 4725,
      "details": 4726,
      "ĠBoolean": 4727,
      "Ġcharacters": 4728,
      "Ġdetermine": 4729,
      "alan": 4730,
      "Before": 4731,
      "Ġsalt": 4732,
      "ished": 4733,
      "THOD": 4734,
      "Ġalias": 4735,
      "ĠTr": 4736,
      "Ġgetattr": 4737,
      "transl": 4738,
      "Dim": 4739,
      "atcher": 4740,
      "dirname": 4741,
      "Common": 4742,
      "(@": 4743,
      "Ġdifferent": 4744,
      "compare": 4745,
      "}'": 4746,
      "Ġredirect": 4747,
      "dn": 4748,
      "Report": 4749,
      "area": 4750,
      "Ġexample": 4751,
      "ĠRun": 4752,
      "oom": 4753,
      "prom": 4754,
      "random": 4755,
      "Summary": 4756,
      "Ġstored": 4757,
      "ĠSibTr": 4758,
      "dst": 4759,
      "TEXT": 4760,
      "Ġzip": 4761,
      "upload": 4762,
      "annotation": 4763,
      "Mapper": 4764,
      "proto": 4765,
      "FileName": 4766,
      "Ġcorrespon": 4767,
      "trigger": 4768,
      "quires": 4769,
      "åĽ": 4770,
      "curl": 4771,
      "ĠFROM": 4772,
      "PT": 4773,
      "UUID": 4774,
      "Decode": 4775,
      "Ġcommit": 4776,
      "Missing": 4777,
      "ically": 4778,
      "Ġvert": 4779,
      "Section": 4780,
      "ipe": 4781,
      "setAttribute": 4782,
      "Ġdesc": 4783,
      "MD": 4784,
      "igit": 4785,
      ":%": 4786,
      "Ġcert": 4787,
      "covery": 4788,
      "statement": 4789,
      "ales": 4790,
      "Illuminate": 4791,
      "ĠByte": 4792,
      "ets": 4793,
      "Ġfactory": 4794,
      "Ġhasattr": 4795,
      "Bar": 4796,
      "Ġannotation": 4797,
      "Ġiss": 4798,
      "Methods": 4799,
      "Where": 4800,
      "ĊĊĉĉĉĉ": 4801,
      "Ġencoded": 4802,
      ">'": 4803,
      "criteria": 4804,
      "HO": 4805,
      "lin": 4806,
      "ĊĠĠĠĠĠĠĠĠĠĠĠĠĠĠĠĠĠĠĠĠĠĠĠĠĠ": 4807,
      "OS": 4808,
      "Ġcached": 4809,
      "Ġcallable": 4810,
      "Ġcalls": 4811,
      "Ġaxis": 4812,
      "Ġ\"-": 4813,
      "binary": 4814,
      "cert": 4815,
      "ĠĠĠĠĠĠĠĠĠĠĠĠĠĠĠĠĠĠĠĠĠĠĠĠĠĠĠĠĠĠĠĠ": 4816,
      "77": 4817,
      "ĠSee": 4818,
      "als": 4819,
      "Ġboth": 4820,
      "CR": 4821,
      "HT": 4822,
      "ied": 4823,
      "SuppressWarnings": 4824,
      "toArray": 4825,
      "ĠWrite": 4826,
      "Rate": 4827,
      "ĊĠĠĠĠĠĠĠĠĠĠĠĠĠĠĠĠĠĠĠĠĠĠĠĠĠĠĠĠ": 4828,
      "icro": 4829,
      "utom": 4830,
      "errupt": 4831,
      "faces": 4832,
      "Ġcurl": 4833,
      "ĠAb": 4834,
      "protocol": 4835,
      "Ġruntime": 4836,
      "38": 4837,
      "PUT": 4838,
      "Ġadds": 4839,
      "alysis": 4840,
      "SELECT": 4841,
      "200": 4842,
      "INFO": 4843,
      "gt": 4844,
      "########": 4845,
      "${": 4846,
      "Filename": 4847,
      "Ġdetails": 4848,
      "Ġsegment": 4849,
      "beta": 4850,
      "ysql": 4851,
      "Look": 4852,
      "SA": 4853,
      "callable": 4854,
      "listener": 4855,
      "getData": 4856,
      "Ġenabled": 4857,
      "Ġatom": 4858,
      "Bound": 4859,
      "60": 4860,
      "FORM": 4861,
      "ĠServer": 4862,
      "enable": 4863,
      "ffered": 4864,
      "sid": 4865,
      "release": 4866,
      "roles": 4867,
      "39": 4868,
      "Ġway": 4869,
      "mut": 4870,
      "Ġpolicy": 4871,
      "cloud": 4872,
      "BUG": 4873,
      "ALSE": 4874,
      "Protocol": 4875,
      "Ġbel": 4876,
      "git": 4877,
      "Ġanother": 4878,
      "regex": 4879,
      "arge": 4880,
      "getPath": 4881,
      "SubElement": 4882,
      "Objects": 4883,
      "olders": 4884,
      "Hook": 4885,
      "cel": 4886,
      "VERSION": 4887,
      "Show": 4888,
      "Ġ\"+": 4889,
      "ĠST": 4890,
      "å¼": 4891,
      "cover": 4892,
      "clus": 4893,
      "complete": 4894,
      "charAt": 4895,
      "cluster": 4896,
      "Ġrelative": 4897,
      "DATA": 4898,
      "cli": 4899,
      "Ġsymbol": 4900,
      "struction": 4901,
      "Notification": 4902,
      "Man": 4903,
      "><": 4904,
      "Over": 4905,
      "ryption": 4906,
      "Classes": 4907,
      "tn": 4908,
      "previous": 4909,
      "cm": 4910,
      "isDebugEnabled": 4911,
      "Ġids": 4912,
      "ĉĉĉ": 4913,
      "avig": 4914,
      "Cannot": 4915,
      "Panel": 4916,
      "]),": 4917,
      "Replace": 4918,
      "Bit": 4919,
      "ĠInternal": 4920,
      "interval": 4921,
      "router": 4922,
      "plied": 4923,
      "ood": 4924,
      "Persist": 4925,
      "Symbol": 4926,
      "\"):": 4927,
      "Site": 4928,
      "conditions": 4929,
      "atio": 4930,
      "Publish": 4931,
      "ĊĊĠĠĠĠĠĠĠĠĠ": 4932,
      "IM": 4933,
      ")).": 4934,
      "ĠInvalidArgumentException": 4935,
      "draw": 4936,
      "Ġregion": 4937,
      "Usage": 4938,
      "ĠOutput": 4939,
      "('\\": 4940,
      "Ġstructure": 4941,
      "Writ": 4942,
      "27": 4943,
      "destination": 4944,
      "ĊĠĠĠĠĠĠĠĠĠĠĠĠĠĠĠĠĠĠĠĠĠĠĠĠĠĠĠĠĠĠĠĠĠĠĠĠĠĠĠĠĠĠĠ": 4945,
      "Flow": 4946,
      "currency": 4947,
      "compile": 4948,
      ")\",": 4949,
      "center": 4950,
      "oreign": 4951,
      "fully": 4952,
      "Now": 4953,
      "inates": 4954,
      "aving": 4955,
      "Ġ'.$": 4956,
      "Binary": 4957,
      "Binding": 4958,
      "Commit": 4959,
      "ĠOr": 4960,
      "ĠHEAP": 4961,
      "Ġmemory": 4962,
      "Slice": 4963,
      "drop": 4964,
      "çĶ¨": 4965,
      "Ġdiff": 4966,
      "AA": 4967,
      "ta": 4968,
      "Vector": 4969,
      "Ptr": 4970,
      "Ġdel": 4971,
      "sync": 4972,
      "Ġsetup": 4973,
      "Period": 4974,
      "activ": 4975,
      "avax": 4976,
      "fieldName": 4977,
      "yped": 4978,
      "ĠNumber": 4979,
      "updated": 4980,
      "raft": 4981,
      "}'.": 4982,
      "Ġvia": 4983,
      "Ġbean": 4984,
      "Ġarr": 4985,
      "CL": 4986,
      "28": 4987,
      "->$": 4988,
      "rapped": 4989,
      "Cert": 4990,
      "Ġlabels": 4991,
      "ART": 4992,
      "REQUEST": 4993,
      "andidate": 4994,
      "xx": 4995,
      "`,": 4996,
      "oll": 4997,
      "ĊĠĠĠĠĠĠĠĠĠĠĠĠĊĠĠĠĠĠĠĠĠĠĠĠ": 4998,
      "Word": 4999,
      "ĠWHERE": 5000,
      "txt": 5001,
      "hs": 5002,
      "brary": 5003,
      "logy": 5004,
      "master": 5005,
      "Ġsom": 5006,
      "__,": 5007,
      "Ġwhat": 5008,
      "mem": 5009,
      ")/": 5010,
      "Signature": 5011,
      "METHOD": 5012,
      "signed": 5013,
      "related": 5014,
      "endor": 5015,
      "Area": 5016,
      "Comple": 5017,
      "Math": 5018,
      "Ġgenerated": 5019,
      "\\.": 5020,
      "google": 5021,
      "Ġmanager": 5022,
      "dt": 5023,
      "Static": 5024,
      "Ġforce": 5025,
      "strings": 5026,
      "(...)": 5027,
      "FIEL": 5028,
      "incip": 5029,
      "DF": 5030,
      "udit": 5031,
      "ptr": 5032,
      "Ġwidget": 5033,
      "Ġmd": 5034,
      "21": 5035,
      "atom": 5036,
      "Ġ';": 5037,
      "etermin": 5038,
      "eo": 5039,
      "Ġfollowing": 5040,
      "Ġoverride": 5041,
      "uplicate": 5042,
      "*/": 5043,
      "anaged": 5044,
      "Ob": 5045,
      "ones": 5046,
      "strlen": 5047,
      "ĠIndex": 5048,
      "icket": 5049,
      "ĊĠĠĠĠĠĠĠĠĠĠĠĠĠĠĠĠĠĠĠĠĠĠĠĠĠĠ": 5050,
      "Ġawait": 5051,
      "cipient": 5052,
      "Ġdeleted": 5053,
      "Ġequal": 5054,
      "Ġ^": 5055,
      "inv": 5056,
      "Det": 5057,
      "asset": 5058,
      "peat": 5059,
      "Ġdatetime": 5060,
      "Ġcurrently": 5061,
      "URE": 5062,
      "wig": 5063,
      "ssl": 5064,
      "aunch": 5065,
      "Tokens": 5066,
      "(-": 5067,
      "Environment": 5068,
      "ĊĠĠĠĠĊĊĠĠĠ": 5069,
      "ĠTable": 5070,
      "done": 5071,
      "Ġscale": 5072,
      "loop": 5073,
      "Ġiterator": 5074,
      "Ġdriver": 5075,
      "ĠPl": 5076,
      "ĠHashMap": 5077,
      "Ġutils": 5078,
      "appings": 5079,
      "MIN": 5080,
      "Plan": 5081,
      "IRE": 5082,
      "like": 5083,
      "Ġdst": 5084,
      "Grid": 5085,
      "IB": 5086,
      "ĠMake": 5087,
      "Metrics": 5088,
      "Std": 5089,
      "IDs": 5090,
      "Ġpod": 5091,
      "SL": 5092,
      "ze": 5093,
      "counter": 5094,
      "cogn": 5095,
      "Ġtf": 5096,
      "CF": 5097,
      "Equal": 5098,
      "Par": 5099,
      "iling": 5100,
      "Ġinstall": 5101,
      "Ġadditional": 5102,
      "ä½": 5103,
      "clone": 5104,
      "Ġart": 5105,
      "Ġvolume": 5106,
      "50": 5107,
      "Formatter": 5108,
      "stdout": 5109,
      "Ġupload": 5110,
      "ĠWh": 5111,
      "services": 5112,
      "ĠSub": 5113,
      "Ġprops": 5114,
      "></": 5115,
      "Java": 5116,
      "Ġ\"<": 5117,
      "ee": 5118,
      "Ġmask": 5119,
      "Ġbox": 5120,
      "methods": 5121,
      "Ġ'#": 5122,
      "Processor": 5123,
      "Ġusers": 5124,
      "Ġinstances": 5125,
      "begin": 5126,
      "gon": 5127,
      "mime": 5128,
      "tl": 5129,
      "Changed": 5130,
      "Async": 5131,
      "Ġinitialize": 5132,
      "plot": 5133,
      "Ġneeds": 5134,
      "Ġgroups": 5135,
      "Ġtrack": 5136,
      "|\\": 5137,
      "Private": 5138,
      "ross": 5139,
      "Reflection": 5140,
      "Ġrecords": 5141,
      "atten": 5142,
      "Ġ'--": 5143,
      "props": 5144,
      "Ġ'</": 5145,
      "Ġcreating": 5146,
      "ĠBuild": 5147,
      "illis": 5148,
      "comple": 5149,
      "Ġfilepath": 5150,
      "Icon": 5151,
      "Perform": 5152,
      "Memory": 5153,
      "persist": 5154,
      "filePath": 5155,
      "čĊĠĠĠĠĠĠĠĠčĊĠĠĠĠĠĠĠ": 5156,
      "Ġgot": 5157,
      "Ġyet": 5158,
      "ĠLOGGER": 5159,
      "Ġedit": 5160,
      "platform": 5161,
      "Ġloaded": 5162,
      "Ġcap": 5163,
      "ĠImage": 5164,
      "sig": 5165,
      "Ġhex": 5166,
      "URLOPT": 5167,
      "NG": 5168,
      "Region": 5169,
      "Ġwrapper": 5170,
      "Ġclazz": 5171,
      "mac": 5172,
      "losing": 5173,
      "Ġlookup": 5174,
      ")+": 5175,
      "Opts": 5176,
      "suffix": 5177,
      "Ġpush": 5178,
      "assert": 5179,
      "ĠLink": 5180,
      "NLS": 5181,
      "ables": 5182,
      "æĹ": 5183,
      "ours": 5184,
      "Arguments": 5185,
      "align": 5186,
      "ĠContent": 5187,
      "rand": 5188,
      "StatusCode": 5189,
      "26": 5190,
      "Transfer": 5191,
      "uted": 5192,
      "Ġrelease": 5193,
      "Ġlib": 5194,
      "cop": 5195,
      "scheme": 5196,
      "CRE": 5197,
      "æŀ": 5198,
      "Ġnamed": 5199,
      "ĠDis": 5200,
      "permission": 5201,
      "ĠTypeError": 5202,
      "rong": 5203,
      "dump": 5204,
      "Normal": 5205,
      "Ġ(%": 5206,
      "hasNext": 5207,
      "ECT": 5208,
      "Bad": 5209,
      "paces": 5210,
      "Redirect": 5211,
      "pressed": 5212,
      "lambda": 5213,
      "Ġmulti": 5214,
      "pired": 5215,
      "super": 5216,
      "LL": 5217,
      "********************************": 5218,
      "Ġcomplete": 5219,
      "æĺ": 5220,
      "filepath": 5221,
      "panic": 5222,
      "ociation": 5223,
      "Allowed": 5224,
      "onical": 5225,
      "Ġ200": 5226,
      "Ġclone": 5227,
      "ĠLong": 5228,
      "Ġmove": 5229,
      "optional": 5230,
      "ĠEntity": 5231,
      "delta": 5232,
      "emplates": 5233,
      "strpos": 5234,
      "Ġ32": 5235,
      "Ġcp": 5236,
      "ony": 5237,
      "Ġdisk": 5238,
      "raise": 5239,
      "numeric": 5240,
      "Ġter": 5241,
      "rate": 5242,
      "ĠĠĠĠĠĠĠĠĠĠĠĠĠĠ": 5243,
      "onom": 5244,
      "constraint": 5245,
      "fd": 5246,
      "ocation": 5247,
      "NewErr": 5248,
      "Sl": 5249,
      "gative": 5250,
      "variables": 5251,
      "Ren": 5252,
      ">\\": 5253,
      "cam": 5254,
      "ĠPh": 5255,
      "ITE": 5256,
      "FT": 5257,
      "cms": 5258,
      "Ġnecessary": 5259,
      "Cmd": 5260,
      "Org": 5261,
      "ething": 5262,
      "Ġonce": 5263,
      "valuate": 5264,
      "requ": 5265,
      "(...)\");": 5266,
      "Ġsuch": 5267,
      "VALID": 5268,
      "ĠProtocolMarshaller": 5269,
      "Created": 5270,
      "pages": 5271,
      "ifications": 5272,
      "Ġimplementation": 5273,
      "pared": 5274,
      "NewErrParam": 5275,
      "Cookie": 5276,
      "Throwable": 5277,
      "Subject": 5278,
      "vs": 5279,
      "Ġutil": 5280,
      "ively": 5281,
      "Labels": 5282,
      "concat": 5283,
      "href": 5284,
      "Ġsimple": 5285,
      "mutable": 5286,
      "ditions": 5287,
      "'''": 5288,
      "Loop": 5289,
      "cheduler": 5290,
      "helper": 5291,
      "Scale": 5292,
      "Operator": 5293,
      ":\\\"": 5294,
      "kind": 5295,
      "Owner": 5296,
      "catch": 5297,
      "Ġ){": 5298,
      "Ġleast": 5299,
      "Bool": 5300,
      "records": 5301,
      "BE": 5302,
      "Ġlayout": 5303,
      "Ġfunctions": 5304,
      "tod": 5305,
      "tion": 5306,
      "Proto": 5307,
      "validation": 5308,
      "dec": 5309,
      "sib": 5310,
      "Lib": 5311,
      "Ġwould": 5312,
      "Second": 5313,
      "INST": 5314,
      "Ġseconds": 5315,
      "pret": 5316,
      "Ġweight": 5317,
      "ĠDouble": 5318,
      "porter": 5319,
      "ctr": 5320,
      "Filters": 5321,
      "Ġfont": 5322,
      "console": 5323,
      "ĠWeb": 5324,
      "Ġrepo": 5325,
      "runtime": 5326,
      "Ġrec": 5327,
      "Consumer": 5328,
      "ById": 5329,
      "OB": 5330,
      "Ġhook": 5331,
      "priority": 5332,
      "ĠInt": 5333,
      "det": 5334,
      "Ġservices": 5335,
      "signature": 5336,
      "Ġhead": 5337,
      "igits": 5338,
      "Bounds": 5339,
      "pires": 5340,
      "docs": 5341,
      "poser": 5342,
      "FIG": 5343,
      "tableName": 5344,
      "Transport": 5345,
      "Ip": 5346,
      "xa": 5347,
      "Ġoccur": 5348,
      "userid": 5349,
      "Ġtool": 5350,
      "Payload": 5351,
      "Chunk": 5352,
      "binding": 5353,
      "Ġcategory": 5354,
      "Month": 5355,
      "Ġavoid": 5356,
      "structure": 5357,
      "Ġindic": 5358,
      "indent": 5359,
      "segment": 5360,
      "Direct": 5361,
      "Login": 5362,
      "Available": 5363,
      "Ġprovide": 5364,
      "gregate": 5365,
      ")){": 5366,
      "example": 5367,
      "Converter": 5368,
      "Price": 5369,
      "Ġtrigger": 5370,
      "orary": 5371,
      "Ġprotected": 5372,
      "31": 5373,
      "ĠNote": 5374,
      "Arch": 5375,
      "UND": 5376,
      "Ġ_.": 5377,
      "\"},": 5378,
      "Ġ??": 5379,
      "ĠCommand": 5380,
      "Ġwere": 5381,
      "Ġdefaults": 5382,
      "Prop": 5383,
      "Ġretrieve": 5384,
      "Ġren": 5385,
      "strict": 5386,
      "Calendar": 5387,
      "DELETE": 5388,
      "entries": 5389,
      "aug": 5390,
      "Deployment": 5391,
      "ä¸º": 5392,
      "apture": 5393,
      "feed": 5394,
      "åĲį": 5395,
      "Ġenumerate": 5396,
      "Ident": 5397,
      "Ġaddr": 5398,
      "uses": 5399,
      "metric": 5400,
      "ernel": 5401,
      "alancer": 5402,
      "anit": 5403,
      "Ġagent": 5404,
      "Ġduration": 5405,
      "Ġmy": 5406,
      "Ġpan": 5407,
      "æł": 5408,
      "Ġ20": 5409,
      "Ġconstructor": 5410,
      ")\\": 5411,
      "Ġclick": 5412,
      "getUser": 5413,
      "Selection": 5414,
      "atalog": 5415,
      "ĠResult": 5416,
      "Ġshape": 5417,
      "Into": 5418,
      "Real": 5419,
      "Services": 5420,
      "integer": 5421,
      "Ġsync": 5422,
      "Ġdelta": 5423,
      "!=": 5424,
      "Ġpacket": 5425,
      "ness": 5426,
      "<<": 5427,
      "days": 5428,
      "Ġprimary": 5429,
      "otes": 5430,
      "/'": 5431,
      "Ġthese": 5432,
      "imation": 5433,
      "Ġhapp": 5434,
      "Ġnothing": 5435,
      "tax": 5436,
      "Ġfill": 5437,
      "ĠWith": 5438,
      "Progress": 5439,
      "EObject": 5440,
      "links": 5441,
      "xc": 5442,
      "Ġcorresponding": 5443,
      "roker": 5444,
      "mitive": 5445,
      "components": 5446,
      "startsWith": 5447,
      "security": 5448,
      "commands": 5449,
      "limiter": 5450,
      "plugins": 5451,
      "hidden": 5452,
      "Ġrest": 5453,
      "TL": 5454,
      "Temp": 5455,
      "adapter": 5456,
      "Ġelem": 5457,
      "===": 5458,
      "uce": 5459,
      "ulk": 5460,
      "Ġdraw": 5461,
      "El": 5462,
      "DA": 5463,
      "Dat": 5464,
      "Ġcause": 5465,
      "Ġcounter": 5466,
      "setup": 5467,
      "rece": 5468,
      "Ġmonth": 5469,
      "cesses": 5470,
      "ĠAbstract": 5471,
      "å®ļ": 5472,
      "ĠFilter": 5473,
      "duration": 5474,
      "Annotations": 5475,
      "missing": 5476,
      "HEAD": 5477,
      "STATUS": 5478,
      "EOL": 5479,
      "echo": 5480,
      "elem": 5481,
      "Ġexpr": 5482,
      "CESS": 5483,
      "Ġcookie": 5484,
      "Information": 5485,
      "uting": 5486,
      "selector": 5487,
      "multi": 5488,
      "routes": 5489,
      "STRING": 5490,
      "ĊĠĠĠĠĠĠĠĠĠĠĠĠĠĠĠĠĠĠĠĠĠĠĠĠĠĠĠĠĠ": 5491,
      "ĠcaseIfc": 5492,
      "Ġ\");": 5493,
      "ootstrap": 5494,
      "setting": 5495,
      "AUT": 5496,
      "Props": 5497,
      "(`": 5498,
      "ĠStart": 5499,
      "Ġlon": 5500,
      "Ġedge": 5501,
      "Ġfuture": 5502,
      "ilities": 5503,
      "ĠContext": 5504,
      "modified": 5505,
      ".'/": 5506,
      "azy": 5507,
      "spe": 5508,
      "ores": 5509,
      "legate": 5510,
      "Ġbits": 5511,
      "Ġrepository": 5512,
      "Ġmenu": 5513,
      "generator": 5514,
      "zz": 5515,
      "čĊĠ": 5516,
      "37": 5517,
      "Ġlogin": 5518,
      "dispatch": 5519,
      "havior": 5520,
      "Ġfix": 5521,
      "ĠCode": 5522,
      "ĠPy": 5523,
      "Qual": 5524,
      "Ġcancel": 5525,
      "ATTR": 5526,
      "Ax": 5527,
      "(**": 5528,
      "29": 5529,
      "Ġpe": 5530,
      "FilePath": 5531,
      "ToString": 5532,
      "Mock": 5533,
      "Di": 5534,
      "branch": 5535,
      "Ġexc": 5536,
      ")-": 5537,
      "kdir": 5538,
      "Ġtoo": 5539,
      "Done": 5540,
      "mitted": 5541,
      "Ġproduct": 5542,
      "erred": 5543,
      "ters": 5544,
      "ao": 5545,
      "Ġinv": 5546,
      "05": 5547,
      "payment": 5548,
      "Ġ'*": 5549,
      "---": 5550,
      "Disk": 5551,
      "èİ": 5552,
      "exclude": 5553,
      "Entries": 5554,
      "æį®": 5555,
      "Ġmetric": 5556,
      "SESSION": 5557,
      "Marshal": 5558,
      "Ġcollect": 5559,
      "èİ·": 5560,
      "äº": 5561,
      "Pr": 5562,
      "JECT": 5563,
      "DataType": 5564,
      "attach": 5565,
      "0275": 5566,
      "Vars": 5567,
      "anguages": 5568,
      "boot": 5569,
      "lookup": 5570,
      "getField": 5571,
      "visit": 5572,
      "coming": 5573,
      "cording": 5574,
      "mi": 5575,
      "čĊčĊĠĠĠĠĠĠĠĠĠĠĠ": 5576,
      "Ġsupplied": 5577,
      "incipal": 5578,
      "changed": 5579,
      "idE": 5580,
      "Future": 5581,
      "MODE": 5582,
      "('.": 5583,
      "Vertex": 5584,
      "ĠText": 5585,
      "Literal": 5586,
      "refresh": 5587,
      "DEBUG": 5588,
      "Ġmetrics": 5589,
      "Ġstrpos": 5590,
      "Ġmaximum": 5591,
      "Ġ>>>": 5592,
      "Contents": 5593,
      "Ġtypeof": 5594,
      "ä¸Ģ": 5595,
      "stanti": 5596,
      "ĠFind": 5597,
      "Ġretry": 5598,
      "Ġprepare": 5599,
      "getDefault": 5600,
      ",\\\"": 5601,
      "Failure": 5602,
      "Setting": 5603,
      "ongo": 5604,
      "Enc": 5605,
      "sequence": 5606,
      ":\\": 5607,
      "Ġns": 5608,
      "Updates": 5609,
      "Big": 5610,
      "Ġduring": 5611,
      "Req": 5612,
      "Accept": 5613,
      "getString": 5614,
      "Gr": 5615,
      "Ġstrconv": 5616,
      "border": 5617,
      "Utility": 5618,
      "å¯¹": 5619,
      "=\\\"": 5620,
      "Ġmodels": 5621,
      "dl": 5622,
      "Fac": 5623,
      "Ġstrtolower": 5624,
      "+\"": 5625,
      "Payment": 5626,
      "Ġinside": 5627,
      "rain": 5628,
      "Ġinterval": 5629,
      "wer": 5630,
      "Buf": 5631,
      "Ġclosed": 5632,
      "Infof": 5633,
      "Coord": 5634,
      "gu": 5635,
      "Ġpeer": 5636,
      "ather": 5637,
      "worker": 5638,
      "cAddr": 5639,
      "Exit": 5640,
      "Ġpointer": 5641,
      "Ġverify": 5642,
      "Track": 5643,
      "Ġsuffix": 5644,
      "Ġreceived": 5645,
      "Ġdf": 5646,
      "03": 5647,
      "[\\\"\\\\": 5648,
      "Ġexecution": 5649,
      "Ġlower": 5650,
      "country": 5651,
      "Ġvector": 5652,
      "Detail": 5653,
      "Ġ1000": 5654,
      "Decl": 5655,
      "Arr": 5656,
      "bed": 5657,
      "paign": 5658,
      "itespace": 5659,
      "ighb": 5660,
      "Ġbest": 5661,
      "oauth": 5662,
      "Gateway": 5663,
      "undefined": 5664,
      "Fn": 5665,
      "getProcAddr": 5666,
      "Ġ?:": 5667,
      "255": 5668,
      "StateException": 5669,
      "escap": 5670,
      "66": 5671,
      "wp": 5672,
      "ipher": 5673,
      "click": 5674,
      "../": 5675,
      "DT": 5676,
      "disable": 5677,
      "xd": 5678,
      "]->": 5679,
      "uff": 5680,
      "Ġasync": 5681,
      "ond": 5682,
      "fire": 5683,
      "environment": 5684,
      "()[": 5685,
      "Ġstri": 5686,
      "âĢ": 5687,
      "Ġfilters": 5688,
      "Draw": 5689,
      "getTable": 5690,
      "Warning": 5691,
      "ULE": 5692,
      "Place": 5693,
      "Printf": 5694,
      "Skip": 5695,
      "Ġgen": 5696,
      "Ġmodified": 5697,
      "Ġoperator": 5698,
      "Ġrelated": 5699,
      "perand": 5700,
      "ĠeZ": 5701,
      "Authorization": 5702,
      "period": 5703,
      "ĠNOT": 5704,
      "44": 5705,
      "ĠView": 5706,
      "nb": 5707,
      "Make": 5708,
      "Ġround": 5709,
      "Ġstandard": 5710,
      "History": 5711,
      "åĢ": 5712,
      "Ġpublish": 5713,
      "Locator": 5714,
      "oriz": 5715,
      "Series": 5716,
      "ĠRout": 5717,
      "pad": 5718,
      "yml": 5719,
      "existing": 5720,
      "Ġtab": 5721,
      "ãĢĤ": 5722,
      "SD": 5723,
      "Ġhref": 5724,
      "metrics": 5725,
      "cut": 5726,
      "empts": 5727,
      "åº": 5728,
      "ifies": 5729,
      "views": 5730,
      "TODO": 5731,
      "Virtual": 5732,
      "aterial": 5733,
      "rv": 5734,
      "Scal": 5735,
      "Ġreason": 5736,
      "Ð°Ð": 5737,
      "Dict": 5738,
      "letes": 5739,
      "Packet": 5740,
      "rb": 5741,
      "Append": 5742,
      "Rect": 5743,
      "Ġbranch": 5744,
      "utomat": 5745,
      "Dialog": 5746,
      "idual": 5747,
      "identity": 5748,
      "aws": 5749,
      "::$_": 5750,
      "Ġfailure": 5751,
      "Ġconstraint": 5752,
      "Points": 5753,
      "IST": 5754,
      "Head": 5755,
      "mag": 5756,
      "ĠHe": 5757,
      "ĠTR": 5758,
      "()}": 5759,
      "comm": 5760,
      "salt": 5761,
      "Suffix": 5762,
      "CONFIG": 5763,
      "disabled": 5764,
      "road": 5765,
      "Ġattrs": 5766,
      "Ġupdates": 5767,
      "Ġsecret": 5768,
      "gers": 5769,
      "Listeners": 5770,
      "sym": 5771,
      "Ġdataset": 5772,
      "score": 5773,
      "Card": 5774,
      "Ġdistance": 5775,
      "editor": 5776,
      "free": 5777,
      "Activity": 5778,
      "Ġscan": 5779,
      "memory": 5780,
      "Ġhow": 5781,
      "Ġsubject": 5782,
      "Background": 5783,
      "ĠĊĠĠĠĠĠĠĠ": 5784,
      "Ġengine": 5785,
      "Ġhelper": 5786,
      "Ġcompute": 5787,
      "APP": 5788,
      "uit": 5789,
      "ĠNO": 5790,
      "eds": 5791,
      "ĠConnection": 5792,
      "fc": 5793,
      "posite": 5794,
      "ĠCache": 5795,
      "Structure": 5796,
      "fast": 5797,
      "('-": 5798,
      "Ġdepth": 5799,
      "fr": 5800,
      "iration": 5801,
      "ç½": 5802,
      "translation": 5803,
      "separator": 5804,
      "ĠPage": 5805,
      "templates": 5806,
      "Ġdownload": 5807,
      "roid": 5808,
      "codes": 5809,
      "radi": 5810,
      "ä¸ª": 5811,
      "LIC": 5812,
      "Millis": 5813,
      "backend": 5814,
      "Ġattempt": 5815,
      "SK": 5816,
      "Contract": 5817,
      "\\\"](": 5818,
      "Diff": 5819,
      "Converts": 5820,
      "sha": 5821,
      "Executor": 5822,
      "={": 5823,
      "Ġgu": 5824,
      "Ġyear": 5825,
      "ison": 5826,
      "FIELD": 5827,
      "cision": 5828,
      "Ñĥ": 5829,
      "æī": 5830,
      "getParent": 5831,
      "stderr": 5832,
      "Ġstill": 5833,
      "Runtime": 5834,
      "matrix": 5835,
      "ĠChar": 5836,
      "Ġexport": 5837,
      "GR": 5838,
      "23": 5839,
      "progress": 5840,
      "Visible": 5841,
      "GB": 5842,
      "XX": 5843,
      "ĠStream": 5844,
      "ĠCall": 5845,
      "contact": 5846,
      "topic": 5847,
      "oving": 5848,
      "ĠArg": 5849,
      "Ġ{\"": 5850,
      "hip": 5851,
      "single": 5852,
      "[^": 5853,
      "constructor": 5854,
      "ideo": 5855,
      "Ġdisable": 5856,
      "volume": 5857,
      "bits": 5858,
      "ini": 5859,
      "plication": 5860,
      "ĠAd": 5861,
      "compiler": 5862,
      "normalize": 5863,
      "<>(": 5864,
      "eno": 5865,
      "MI": 5866,
      "Asset": 5867,
      "Ġtile": 5868,
      "ulation": 5869,
      "encoded": 5870,
      "Ġpartition": 5871,
      "BagConstraints": 5872,
      "Own": 5873,
      "corator": 5874,
      "LowerCase": 5875,
      "\"}": 5876,
      "iases": 5877,
      "aemon": 5878,
      "pred": 5879,
      "Ġcompare": 5880,
      "aging": 5881,
      "Ġspecial": 5882,
      "Ġprocessing": 5883,
      "Ġlambda": 5884,
      "Lines": 5885,
      "Amount": 5886,
      "Ġaccording": 5887,
      "registry": 5888,
      "ctrine": 5889,
      "æĸĩä»¶": 5890,
      "dot": 5891,
      "Ġsnapshot": 5892,
      "Ġzone": 5893,
      "tle": 5894,
      "isValid": 5895,
      "inator": 5896,
      "Ġmost": 5897,
      "ByName": 5898,
      "Ġformatted": 5899,
      "88": 5900,
      "none": 5901,
      "watch": 5902,
      "Ġselector": 5903,
      "appendChild": 5904,
      "IVE": 5905,
      "tools": 5906,
      "NotNull": 5907,
      "images": 5908,
      "Ġgets": 5909,
      "Ġmeans": 5910,
      "cancel": 5911,
      "ĠFALSE": 5912,
      "ĠProcess": 5913,
      "WN": 5914,
      "tf": 5915,
      "[])": 5916,
      "(\\\"": 5917,
      "Ġprogress": 5918,
      "Ġproper": 5919,
      "Install": 5920,
      "Main": 5921,
      "Net": 5922,
      "Buffered": 5923,
      "chart": 5924,
      "Ġmaster": 5925,
      "Ġlat": 5926,
      "exc": 5927,
      "Ctx": 5928,
      "bad": 5929,
      "Ġblocks": 5930,
      "getCurrent": 5931,
      "dum": 5932,
      "DOM": 5933,
      "Ġagainst": 5934,
      "Mask": 5935,
      "history": 5936,
      "bre": 5937,
      "Ġappropri": 5938,
      "Instances": 5939,
      "Peer": 5940,
      "ences": 5941,
      "Allow": 5942,
      "OPTION": 5943,
      "External": 5944,
      "background": 5945,
      "pkg": 5946,
      "èİ·åıĸ": 5947,
      "}\".": 5948,
      "IgnoreCase": 5949,
      "direction": 5950,
      "ffic": 5951,
      "csv": 5952,
      "Ġmight": 5953,
      "cols": 5954,
      "getResource": 5955,
      "Worker": 5956,
      "viders": 5957,
      "Ġmer": 5958,
      "URCE": 5959,
      "ĠDOM": 5960,
      "ĠSE": 5961,
      "ĠLoad": 5962,
      "Decimal": 5963,
      "plan": 5964,
      "ashboard": 5965,
      "Users": 5966,
      "basename": 5967,
      "ĠRed": 5968,
      "high": 5969,
      "Ġ'.'": 5970,
      ")==": 5971,
      "Ġ\"_": 5972,
      "Ġhigh": 5973,
      "Authentication": 5974,
      "INSTANCE": 5975,
      "Ġbackend": 5976,
      "Tab": 5977,
      "olygon": 5978,
      "EV": 5979,
      "Promise": 5980,
      "ĠSimple": 5981,
      "FIN": 5982,
      "schedule": 5983,
      "Ġamount": 5984,
      "download": 5985,
      "Reset": 5986,
      "Ġvm": 5987,
      "Ġseries": 5988,
      "DD": 5989,
      "tables": 5990,
      "StackTrace": 5991,
      "Ġmedia": 5992,
      "sq": 5993,
      "ĠIO": 5994,
      "ĠBlock": 5995,
      "ayer": 5996,
      "Exist": 5997,
      "pg": 5998,
      "chars": 5999,
      "-%": 6000,
      "----------------------------------------------------------------": 6001,
      "Ġselection": 6002,
      ">)": 6003,
      "collect": 6004,
      "copes": 6005,
      "ĠPer": 6006,
      "86": 6007,
      "Ġadmin": 6008,
      "Mail": 6009,
      "COMP": 6010,
      "Opt": 6011,
      "crypted": 6012,
      "riptions": 6013,
      "Support": 6014,
      "Ġsomething": 6015,
      "ĠLA": 6016,
      "origin": 6017,
      "ĊĠĠĠĠĠĠĠĠĠĠĠĠĠĠĠĠĠĠĠĠĠĠĠĠĠĠĠĠĠĠ": 6018,
      "ĠOnly": 6019,
      "arb": 6020,
      "foreign": 6021,
      "ç¬": 6022,
      "edge": 6023,
      "ents": 6024,
      "coord": 6025,
      "reflection": 6026,
      "ACT": 6027,
      "Ġsig": 6028,
      "reverse": 6029,
      "ĠParameters": 6030,
      "ango": 6031,
      "pending": 6032,
      "Ġpkg": 6033,
      "ĠBe": 6034,
      "Ter": 6035,
      "=$": 6036,
      "Ġknow": 6037,
      "abilities": 6038,
      "Ġicon": 6039,
      "rase": 6040,
      "Ġuses": 6041,
      "Ġpr": 6042,
      "Machine": 6043,
      "å½": 6044,
      "lict": 6045,
      "dataset": 6046,
      "Help": 6047,
      "nail": 6048,
      "Ġplatform": 6049,
      "Ġcomponents": 6050,
      "CU": 6051,
      "mo": 6052,
      "Ġworker": 6053,
      "æĺ¯": 6054,
      "Single": 6055,
      "png": 6056,
      "wt": 6057,
      "kernel": 6058,
      "Ox": 6059,
      "(':": 6060,
      "Export": 6061,
      "mm": 6062,
      "Year": 6063,
      "Ġ):": 6064,
      "_.": 6065,
      "ĠTask": 6066,
      "Ġregex": 6067,
      "(:": 6068,
      "rary": 6069,
      "emo": 6070,
      "summary": 6071,
      "Elem": 6072,
      "ĠProperty": 6073,
      "Constant": 6074,
      "ç½®": 6075,
      "andling": 6076,
      "TAG": 6077,
      "ĠIterator": 6078,
      "MB": 6079,
      "'ll": 6080,
      "åĽŀ": 6081,
      "logging": 6082,
      "setValue": 6083,
      "Ġ24": 6084,
      "ĠDocument": 6085,
      "Release": 6086,
      "oted": 6087,
      "('#": 6088,
      "Ġtri": 6089,
      "ĠSo": 6090,
      "velope": 6091,
      "BY": 6092,
      "ĠRuntime": 6093,
      "reply": 6094,
      "ula": 6095,
      "ibm": 6096,
      "Ġtopic": 6097,
      "Sym": 6098,
      "ĠConfiguration": 6099,
      "ORDER": 6100,
      "Ġregistry": 6101,
      "ĊĊĊĠĠĠĠĠĠĠ": 6102,
      "permissions": 6103,
      "LINE": 6104,
      "illi": 6105,
      "Removes": 6106,
      "Mut": 6107,
      "INTER": 6108,
      "Ġcommands": 6109,
      "Backend": 6110,
      "ĠKeyError": 6111,
      "MT": 6112,
      "Ġchr": 6113,
      "Credentials": 6114,
      "WE": 6115,
      "variant": 6116,
      "lint": 6117,
      "Ġdefin": 6118,
      "STATE": 6119,
      "Seconds": 6120,
      "('<": 6121,
      "Ġtimes": 6122,
      "ĠContainer": 6123,
      "Lookup": 6124,
      "Ġinner": 6125,
      "urface": 6126,
      "Ġplot": 6127,
      "PREFIX": 6128,
      "Upper": 6129,
      "Ġconstruct": 6130,
      "Ġ|=": 6131,
      "Ġmean": 6132,
      ">.": 6133,
      "ĠCal": 6134,
      "JS": 6135,
      "ĠFunction": 6136,
      "BR": 6137,
      "Ġexpect": 6138,
      "Ġ''''''": 6139,
      "loor": 6140,
      "Ġbin": 6141,
      "åĮ": 6142,
      "Implement": 6143,
      "ANG": 6144,
      "ĠTra": 6145,
      "Ġkind": 6146,
      "Ġvisit": 6147,
      "allel": 6148,
      "verify": 6149,
      "Ġknown": 6150,
      "contentType": 6151,
      "Ġusage": 6152,
      "charset": 6153,
      "note": 6154,
      "59": 6155,
      "licies": 6156,
      "(%": 6157,
      "igrations": 6158,
      "invoke": 6159,
      "ĠAc": 6160,
      "Ġpersist": 6161,
      "CONT": 6162,
      ">>>": 6163,
      "CI": 6164,
      "Ġinspect": 6165,
      "should": 6166,
      "Ġdid": 6167,
      "ĠIllegalStateException": 6168,
      "Sample": 6169,
      "esh": 6170,
      "isto": 6171,
      "Chan": 6172,
      "Ġca": 6173,
      "Ġlater": 6174,
      "Named": 6175,
      "('_": 6176,
      "Ġcalculate": 6177,
      "Schedule": 6178,
      "verbose": 6179,
      "addAll": 6180,
      "toLowerCase": 6181,
      "Topic": 6182,
      "unchecked": 6183,
      "override": 6184,
      "fony": 6185,
      "Router": 6186,
      "}\\": 6187,
      "Strings": 6188,
      "Edge": 6189,
      "SSL": 6190,
      "members": 6191,
      "tick": 6192,
      "Ġ\";": 6193,
      "Axis": 6194,
      "yy": 6195,
      "ILE": 6196,
      "Ã©": 6197,
      "AG": 6198,
      "ĠClose": 6199,
      "price": 6200,
      "ĠRes": 6201,
      "Ġast": 6202,
      "aries": 6203,
      "////////////////////////////////": 6204,
      "ĠSchema": 6205,
      "Ġmath": 6206,
      "getE": 6207,
      "Ġsafe": 6208,
      "Ġ64": 6209,
      "48": 6210,
      "poch": 6211,
      "Ġmany": 6212,
      "parison": 6213,
      "TS": 6214,
      "come": 6215,
      "hy": 6216,
      "getB": 6217,
      "gre": 6218,
      "ĠThread": 6219,
      "Generated": 6220,
      "FC": 6221,
      "OKEN": 6222,
      "ĠAll": 6223,
      "ĠHandle": 6224,
      "ough": 6225,
      "Ġparsing": 6226,
      "azon": 6227,
      "containsKey": 6228,
      "ĠJava": 6229,
      "pet": 6230,
      "Push": 6231,
      "Ġtasks": 6232,
      "reser": 6233,
      "ĠOther": 6234,
      "LOB": 6235,
      "isArray": 6236,
      "processor": 6237,
      ")*": 6238,
      "ĠCURLOPT": 6239,
      "Ġowner": 6240,
      "define": 6241,
      "fplib": 6242,
      "stit": 6243,
      "Conversion": 6244,
      "aves": 6245,
      "Ġ255": 6246,
      "Ġsignal": 6247,
      "sect": 6248,
      "ĊĉĉĉĊĉĉ": 6249,
      "Ġ60": 6250,
      "cum": 6251,
      "fplibPackage": 6252,
      "sales": 6253,
      "Transl": 6254,
      "alog": 6255,
      "(\",": 6256,
      "Blocks": 6257,
      "rot": 6258,
      "RES": 6259,
      "Cursor": 6260,
      "attrib": 6261,
      "Ġ..": 6262,
      "éĢ": 6263,
      "quent": 6264,
      "ĠDateTime": 6265,
      "cluding": 6266,
      "lied": 6267,
      "scan": 6268,
      "Gen": 6269,
      "Ġnormalize": 6270,
      "Many": 6271,
      "extensions": 6272,
      "Ġstarting": 6273,
      "dc": 6274,
      "ĠSession": 6275,
      "READ": 6276,
      "ants": 6277,
      "alloc": 6278,
      "rpc": 6279,
      "[(": 6280,
      "imate": 6281,
      "lev": 6282,
      "relative": 6283,
      "Ġemit": 6284,
      "Ġperiod": 6285,
      "IGHT": 6286,
      "Unique": 6287,
      "pub": 6288,
      "Ġ\"{": 6289,
      "Ġwrap": 6290,
      "Des": 6291,
      "vl": 6292,
      "Measure": 6293,
      "Trim": 6294,
      "čĊĠĠĠĠĠĠĠĠĠ": 6295,
      "Ġown": 6296,
      "/**": 6297,
      "}\",": 6298,
      "Shared": 6299,
      "Generic": 6300,
      "reason": 6301,
      "EC": 6302,
      "priv": 6303,
      "Ġactions": 6304,
      "ascript": 6305,
      "çĽ": 6306,
      "Ġauthentication": 6307,
      "Ġetc": 6308,
      "deli": 6309,
      "Retrieve": 6310,
      "scriber": 6311,
      "umbnail": 6312,
      "bottom": 6313,
      "Ġappropriate": 6314,
      "atible": 6315,
      "PDO": 6316,
      "NULL": 6317,
      "è¿Ķ": 6318,
      "ention": 6319,
      "Rest": 6320,
      "(\"[": 6321,
      "Holder": 6322,
      "Ġisn": 6323,
      "Gu": 6324,
      "pdf": 6325,
      "getParameter": 6326,
      "Ġorigin": 6327,
      "ĠArgument": 6328,
      "||(": 6329,
      "Ġimages": 6330,
      "->{$": 6331,
      "ä¸į": 6332,
      "Ġmodules": 6333,
      "WARN": 6334,
      "Ġ\":": 6335,
      "----------": 6336,
      "destroy": 6337,
      "plain": 6338,
      "Used": 6339,
      "ĠYii": 6340,
      "æķ°æį®": 6341,
      "Ġprodu": 6342,
      "istogram": 6343,
      "wrapper": 6344,
      "Ġnested": 6345,
      "ĠAS": 6346,
      "notification": 6347,
      "tip": 6348,
      "Ġrepresenting": 6349,
      "Ġwords": 6350,
      "avigation": 6351,
      ")?": 6352,
      "uggest": 6353,
      "swer": 6354,
      "Partition": 6355,
      "åľ": 6356,
      "It": 6357,
      "errupted": 6358,
      "Lif": 6359,
      "blob": 6360,
      "Ġpred": 6361,
      "Actions": 6362,
      "Timer": 6363,
      "Declaration": 6364,
      "Separator": 6365,
      "Ġcalling": 6366,
      "[:,": 6367,
      "enum": 6368,
      "Ġcertificate": 6369,
      "ading": 6370,
      "Updated": 6371,
      "Complete": 6372,
      "DC": 6373,
      "Ġlisteners": 6374,
      "padding": 6375,
      "Ġ{},": 6376,
      "Ġabsolute": 6377,
      "equalsIgnoreCase": 6378,
      "FORMAT": 6379,
      "ĠRef": 6380,
      "509": 6381,
      "Ġimg": 6382,
      "gisters": 6383,
      "blocks": 6384,
      "Matcher": 6385,
      "Ġcredentials": 6386,
      "vec": 6387,
      ">',": 6388,
      "Ġdtype": 6389,
      "unknown": 6390,
      "Extra": 6391,
      "Ġunicode": 6392,
      "cn": 6393,
      "ars": 6394,
      "Shop": 6395,
      "ÐµÐ": 6396,
      "å¾": 6397,
      "Ġdefine": 6398,
      "åĨ": 6399,
      "Ġseq": 6400,
      "Revision": 6401,
      "ierarch": 6402,
      "Ġplugins": 6403,
      "æİ": 6404,
      "win": 6405,
      "ĠAct": 6406,
      "renderer": 6407,
      "ĠGroup": 6408,
      "NextToken": 6409,
      "PACE": 6410,
      "--;": 6411,
      "ĠLe": 6412,
      "SSAGE": 6413,
      "ĠĊĠĠĠĠĠĠĠĠĠĠĠ": 6414,
      "sens": 6415,
      "Click": 6416,
      "met": 6417,
      "Encoder": 6418,
      "å°": 6419,
      "ç±": 6420,
      "aa": 6421,
      "onomy": 6422,
      "Ġts": 6423,
      "cores": 6424,
      "Ġjavax": 6425,
      "Ġbrowser": 6426,
      "Dispatcher": 6427,
      "ĠDeepCopy": 6428,
      "Selected": 6429,
      "HA": 6430,
      "illing": 6431,
      "ĠVersion": 6432,
      "Permissions": 6433,
      "Weight": 6434,
      "NUM": 6435,
      "Ġ))": 6436,
      "ately": 6437,
      "åĩ": 6438,
      "Ġ\"\")": 6439,
      "ç±»": 6440,
      "Ġ'');": 6441,
      "Ġuuid": 6442,
      "scroll": 6443,
      "Variables": 6444,
      "mean": 6445,
      "']->": 6446,
      "UTE": 6447,
      "tpl": 6448,
      "Scroll": 6449,
      "Ġsepar": 6450,
      "ContentType": 6451,
      "Ġscore": 6452,
      "Depth": 6453,
      "browser": 6454,
      "Screen": 6455,
      "Ġest": 6456,
      "compute": 6457,
      "createElement": 6458,
      "Ġ${": 6459,
      "hostname": 6460,
      "æ³": 6461,
      "ving": 6462,
      "Lang": 6463,
      "Ġdeep": 6464,
      "Ġalign": 6465,
      "YY": 6466,
      "curr": 6467,
      "Watch": 6468,
      "ks": 6469,
      "Ġrefresh": 6470,
      "Ġtakes": 6471,
      "ĠPO": 6472,
      "iform": 6473,
      "ĠIS": 6474,
      ">\"": 6475,
      "Ġdependency": 6476,
      "getA": 6477,
      "Ġdiv": 6478,
      "jo": 6479,
      "transport": 6480,
      "Unexpected": 6481,
      "Uuid": 6482,
      "Scan": 6483,
      "external": 6484,
      "Ġ{}\".": 6485,
      "ĠCan": 6486,
      "Iss": 6487,
      "Ġ'&": 6488,
      "Marker": 6489,
      "45": 6490,
      "sep": 6491,
      "Ġrect": 6492,
      "Ġenc": 6493,
      "Ġ{}\",": 6494,
      "ONE": 6495,
      "POS": 6496,
      "ci": 6497,
      "SY": 6498,
      "anagement": 6499,
      "ĠinvalidParams": 6500,
      "ota": 6501,
      "ĠDEFAULT": 6502,
      "ĠWork": 6503,
      "ĠPromise": 6504,
      "ãģ®": 6505,
      "sers": 6506,
      "getQuery": 6507,
      "umes": 6508,
      "instances": 6509,
      "peer": 6510,
      "actual": 6511,
      "orizont": 6512,
      "ĠWhen": 6513,
      "Tick": 6514,
      "FOL": 6515,
      "ĠUnmarshal": 6516,
      "correct": 6517,
      "notify": 6518,
      "AXB": 6519,
      "sTo": 6520,
      "sess": 6521,
      "Ġeditor": 6522,
      "sist": 6523,
      "Character": 6524,
      "Ġ$$": 6525,
      "Ġstdout": 6526,
      "GRO": 6527,
      "Ġreading": 6528,
      "kill": 6529,
      "home": 6530,
      "Ġalloc": 6531,
      "Ġcharset": 6532,
      "åĢ¼": 6533,
      "iment": 6534,
      "Ġnever": 6535,
      "Ġgenerator": 6536,
      "Ġinte": 6537,
      "Span": 6538,
      "running": 6539,
      "PROPER": 6540,
      "Ġpending": 6541,
      "getF": 6542,
      "Ġqual": 6543,
      "ĠFl": 6544,
      "lide": 6545,
      "Ġserialize": 6546,
      "WR": 6547,
      "bot": 6548,
      "VM": 6549,
      "Ġmachine": 6550,
      "Roles": 6551,
      "Ñı": 6552,
      "ĠTree": 6553,
      "oring": 6554,
      "alance": 6555,
      "posed": 6556,
      "Ġsaved": 6557,
      "retry": 6558,
      "Ġprom": 6559,
      "Backup": 6560,
      "ĠJob": 6561,
      "kw": 6562,
      "ä¿": 6563,
      "ĠTRUE": 6564,
      "ultipart": 6565,
      ")',": 6566,
      "redis": 6567,
      "Ġreply": 6568,
      "sorted": 6569,
      "simple": 6570,
      "Assert": 6571,
      "Ġflush": 6572,
      "LIST": 6573,
      "ĊĠĠĠĠĠĠĠĠĠĠĠĠĠĠĠĠĠĠĠĠĠĠĠĠĠĠĠĠĠĠĠĠĠĠĠĠĠĠĠĠĠĠĠĠĠĠĠ": 6574,
      "Renderer": 6575,
      "deleted": 6576,
      "Ġ\\\"": 6577,
      "Ġenable": 6578,
      "antity": 6579,
      "ARY": 6580,
      "Translation": 6581,
      "Ġdependencies": 6582,
      "idEsales": 6583,
      "cf": 6584,
      "Ġunknown": 6585,
      "Serializer": 6586,
      "OxidEsales": 6587,
      "Bits": 6588,
      "LY": 6589,
      "Ġrs": 6590,
      "xFF": 6591,
      "Ġconsumer": 6592,
      "TRAN": 6593,
      "Closure": 6594,
      "wik": 6595,
      "=\"'": 6596,
      "visible": 6597,
      "\\/": 6598,
      "handlers": 6599,
      "scalar": 6600,
      "Go": 6601,
      "Merge": 6602,
      "roadcast": 6603,
      "tuple": 6604,
      "Ġ\"/\"": 6605,
      "Ġ\"--": 6606,
      "etter": 6607,
      "lon": 6608,
      "ĠColumn": 6609,
      "Ġblob": 6610,
      "Subscription": 6611,
      "tasks": 6612,
      "packet": 6613,
      "ĊĠĠĠĠĉ": 6614,
      "Excel": 6615,
      "Seq": 6616,
      "Note": 6617,
      "ares": 6618,
      "expand": 6619,
      "78": 6620,
      "Esc": 6621,
      "You": 6622,
      "Ġdescriptor": 6623,
      "initialize": 6624,
      "ensor": 6625,
      "Ġside": 6626,
      "Ġtake": 6627,
      "(',',": 6628,
      "delay": 6629,
      "AUTH": 6630,
      "Ġwell": 6631,
      "Username": 6632,
      "Ġspecify": 6633,
      "ĠReg": 6634,
      "ADD": 6635,
      "'\\": 6636,
      "tim": 6637,
      "Ġasset": 6638,
      "Ġes": 6639,
      "ctions": 6640,
      "Ġpermission": 6641,
      "Ġ'{}": 6642,
      "ĠAfplibPackage": 6643,
      "ildcard": 6644,
      "Ġflow": 6645,
      "Ġfire": 6646,
      "49": 6647,
      "Ġdot": 6648,
      "ĠCON": 6649,
      "na": 6650,
      "čĊĉĉĉĉĉĉ": 6651,
      "encrypt": 6652,
      "elist": 6653,
      "clusive": 6654,
      "Include": 6655,
      "Ġidentity": 6656,
      "adow": 6657,
      "setopt": 6658,
      "Optional": 6659,
      "Balancer": 6660,
      "ĠVar": 6661,
      "Ġmembers": 6662,
      "selection": 6663,
      "features": 6664,
      "Ġnotification": 6665,
      "è¡Į": 6666,
      "slot": 6667,
      "uite": 6668,
      "ĊĠĠĠĠĠĠĊĠĠĠĠĠ": 6669,
      "Ġwatch": 6670,
      "ĠExpression": 6671,
      "Ġsecurity": 6672,
      "Na": 6673,
      "eval": 6674,
      "Contains": 6675,
      "Called": 6676,
      "ggle": 6677,
      "START": 6678,
      "Ġcalcul": 6679,
      "udo": 6680,
      "ĠState": 6681,
      "Ġissue": 6682,
      "Master": 6683,
      "Ġ\"$": 6684,
      "Pass": 6685,
      "video": 6686,
      "Rad": 6687,
      "indices": 6688,
      "TABLE": 6689,
      "acing": 6690,
      "Ġdump": 6691,
      "Ġlinks": 6692,
      "getFile": 6693,
      "Ġsix": 6694,
      "ecycle": 6695,
      "Ġfeatures": 6696,
      "Ġdirectly": 6697,
      "Ġattach": 6698,
      "backup": 6699,
      "tp": 6700,
      "customer": 6701,
      "stub": 6702,
      "lems": 6703,
      "signal": 6704,
      "Ġactiv": 6705,
      "Ġdrop": 6706,
      "Nullable": 6707,
      "strtolower": 6708,
      "writel": 6709,
      "Pop": 6710,
      "unset": 6711,
      "digest": 6712,
      "ĠclassName": 6713,
      "proc": 6714,
      "Regex": 6715,
      "ka": 6716,
      "HEADER": 6717,
      "vance": 6718,
      "è¡¨": 6719,
      "orizontal": 6720,
      "Ġnumpy": 6721,
      "family": 6722,
      "TLS": 6723,
      "Ġpixel": 6724,
      "Ġreceiver": 6725,
      "ĠDesc": 6726,
      "Ġpermissions": 6727,
      "Pay": 6728,
      "era": 6729,
      "Collector": 6730,
      "æľī": 6731,
      "=',": 6732,
      "Records": 6733,
      "Cor": 6734,
      "Ġdec": 6735,
      "added": 6736,
      "Ġrot": 6737,
      "ĠStatus": 6738,
      "team": 6739,
      "ĠItem": 6740,
      "Ġalpha": 6741,
      "prob": 6742,
      "Ġpartic": 6743,
      "arrow": 6744,
      "dian": 6745,
      "Ġpairs": 6746,
      "Ġcam": 6747,
      "Clear": 6748,
      "Ġrequires": 6749,
      "argv": 6750,
      "Scheme": 6751,
      "requency": 6752,
      "Clause": 6753,
      "resse": 6754,
      "ĠJAXB": 6755,
      "ĊĠĠĠĠĠĠĠĠĠĠĠĠĠĠĠĠĠĠĠĠĠĠĠĠĠĠĠĠĠĠĠĠĠ": 6756,
      "SU": 6757,
      "Ġspan": 6758,
      "SCR": 6759,
      "Ġignored": 6760,
      "secure": 6761,
      "allet": 6762,
      "Ġinstalled": 6763,
      "ĳĦ": 6764,
      "Ġreverse": 6765,
      "ðĳĦ": 6766,
      "ĠDIRE": 6767,
      "Ġscal": 6768,
      "Ġhappen": 6769,
      "Eshop": 6770,
      "è¿ĶåĽŀ": 6771,
      "orld": 6772,
      "ĠTag": 6773,
      "ĊĠĠĠĠĠĠĠĠĠĠĠĠĠĠĠĠĠĠĠĠĠĠĠĠĠĠĠĠĠĠĠĠĠĠ": 6774,
      "Ġremaining": 6775,
      "categories": 6776,
      "roke": 6777,
      "series": 6778,
      "Tables": 6779,
      "ATED": 6780,
      "lying": 6781,
      "Retry": 6782,
      "COM": 6783,
      "....": 6784,
      "RPC": 6785,
      "čĊčĊĉĉ": 6786,
      "Ġnone": 6787,
      "ram": 6788,
      "Ġmatched": 6789,
      "cursively": 6790,
      "orig": 6791,
      "Ġeven": 6792,
      "dtype": 6793,
      "ĠHtml": 6794,
      "SOURCE": 6795,
      "Constructor": 6796,
      ",\"": 6797,
      "Ġdt": 6798,
      "Ġjs": 6799,
      "onym": 6800,
      "enticated": 6801,
      "Editor": 6802,
      "Cancel": 6803,
      "Ġautogenerated": 6804,
      "zero": 6805,
      "Apply": 6806,
      "pointer": 6807,
      "Ġcli": 6808,
      "Hex": 6809,
      "Ġschedule": 6810,
      "ĠSec": 6811,
      "submit": 6812,
      "Ġmock": 6813,
      "Ġsuccessful": 6814,
      "Ġnote": 6815,
      "matcher": 6816,
      "Ġalt": 6817,
      "Decoder": 6818,
      "Ġreturning": 6819,
      "Ġarrays": 6820,
      "Ġitself": 6821,
      "AWS": 6822,
      "ä¸Ń": 6823,
      "Ġtables": 6824,
      "sired": 6825,
      "weekday": 6826,
      "Ġdirection": 6827,
      "Ġlow": 6828,
      "ism": 6829,
      "Ġwritten": 6830,
      "Ġindices": 6831,
      "Ġbar": 6832,
      "Team": 6833,
      "Clean": 6834,
      "Ġtransl": 6835,
      "Ġloader": 6836,
      "æĿ": 6837,
      "getEntity": 6838,
      "Ġarchive": 6839,
      "resolver": 6840,
      "Ġconstant": 6841,
      "Ġallows": 6842,
      "ĠSc": 6843,
      "ĠRel": 6844,
      "pany": 6845,
      "æĮ": 6846,
      "Ġprocessed": 6847,
      "æĹ¶": 6848,
      "chor": 6849,
      "Repo": 6850,
      "Ġstarted": 6851,
      "ç¬¦": 6852,
      "Fld": 6853,
      "Priority": 6854,
      ":'": 6855,
      "GS": 6856,
      "FER": 6857,
      "ErrInvalid": 6858,
      "Ġscreen": 6859,
      "writeln": 6860,
      "Border": 6861,
      "Codes": 6862,
      "Delay": 6863,
      "license": 6864,
      "lab": 6865,
      "getOption": 6866,
      "ĊĉĉĠĠĠ": 6867,
      "Ġgeneric": 6868,
      "Ġnumbers": 6869,
      "Ġseparator": 6870,
      "impl": 6871,
      "Ġupper": 6872,
      "Ġexclude": 6873,
      "screen": 6874,
      "Tasks": 6875,
      "SV": 6876,
      "getTime": 6877,
      "ampl": 6878,
      "Ġfails": 6879,
      "ium": 6880,
      "Ġbinding": 6881,
      "Align": 6882,
      "BASE": 6883,
      "Ġmount": 6884,
      "čĊĉĉčĊĉ": 6885,
      "tile": 6886,
      "Ġsuccessfully": 6887,
      "credentials": 6888,
      "analy": 6889,
      "embedded": 6890,
      "Ġwrong": 6891,
      "IPT": 6892,
      "formatter": 6893,
      "confirm": 6894,
      "Contact": 6895,
      "CLI": 6896,
      "æŀľ": 6897,
      ",'": 6898,
      "ilation": 6899,
      "yaml": 6900,
      "Ġthose": 6901,
      "ĊĠĠĠĠĠĠĠĠĠĠĠĠĠĠĠĠĠĠĠĠĠĠĠĠĠĠĠĠĠĠĠĠĠĠĠĠ": 6902,
      "42": 6903,
      "PORT": 6904,
      "UNT": 6905,
      "bb": 6906,
      "istic": 6907,
      "DIRE": 6908,
      "Handlers": 6909,
      "Trigger": 6910,
      "Ġversions": 6911,
      "UNCTION": 6912,
      "Models": 6913,
      "Ġexceptions": 6914,
      "è§": 6915,
      "Ġmb": 6916,
      "Ġescape": 6917,
      "loads": 6918,
      "Ġabs": 6919,
      "Running": 6920,
      "aut": 6921,
      "ĠCl": 6922,
      "quival": 6923,
      "MetaData": 6924,
      "Ġbounds": 6925,
      "NonNull": 6926,
      "Attachment": 6927,
      "*(": 6928,
      "avascript": 6929,
      "Ġrespon": 6930,
      "Ġcompile": 6931,
      "Primary": 6932,
      "comments": 6933,
      "Sel": 6934,
      "Health": 6935,
      "hide": 6936,
      "46": 6937,
      "acl": 6938,
      "Ġhandlers": 6939,
      "Ġcast": 6940,
      "Members": 6941,
      "assets": 6942,
      "keyword": 6943,
      "Ġprevent": 6944,
      "todo": 6945,
      "ĠOtherwise": 6946,
      "Ġprogram": 6947,
      "}()": 6948,
      "ĠApi": 6949,
      "Cam": 6950,
      "uman": 6951,
      "Ġalgorithm": 6952,
      "TableName": 6953,
      "Ġlibrary": 6954,
      "ĠAny": 6955,
      "Monitor": 6956,
      "}`": 6957,
      "Given": 6958,
      "IX": 6959,
      "ĠPoint": 6960,
      "Zero": 6961,
      "alf": 6962,
      "Ġconverted": 6963,
      "ĠColor": 6964,
      "aff": 6965,
      "(\"<": 6966,
      "ALS": 6967,
      "entrySet": 6968,
      "machine": 6969,
      "ctrl": 6970,
      "±¡": 6971,
      "Ġdelay": 6972,
      "rus": 6973,
      "Pag": 6974,
      "ITH": 6975,
      "AV": 6976,
      "Ret": 6977,
      "ĠDIRECTORY": 6978,
      "Bus": 6979,
      "è½": 6980,
      "enar": 6981,
      "Dimension": 6982,
      "Lat": 6983,
      "è±¡": 6984,
      "userId": 6985,
      "FOR": 6986,
      "Archive": 6987,
      "Criteria": 6988,
      "bine": 6989,
      "ittle": 6990,
      "ĊĠĠĠĠĠĠĠĠĠĠĠĠĉ": 6991,
      "Ġpatch": 6992,
      "margin": 6993,
      "Ġrestore": 6994,
      "Ġtyp": 6995,
      "subscribe": 6996,
      "atest": 6997,
      "VICE": 6998,
      "Ġpid": 6999,
      "getService": 7000,
      "ired": 7001,
      "Ġslot": 7002,
      "__['": 7003,
      "MESSAGE": 7004,
      "Endian": 7005,
      "lyph": 7006,
      "PS": 7007,
      "FE": 7008,
      "Ġmag": 7009,
      "']]": 7010,
      "Ġ15": 7011,
      "VAR": 7012,
      "Ġgre": 7013,
      "Ñĭ": 7014,
      "Mount": 7015,
      "environ": 7016,
      "Ġrc": 7017,
      "Ġder": 7018,
      "sleep": 7019,
      "Ġadapter": 7020,
      "ĠCollections": 7021,
      "ãĥ¼": 7022,
      "Ġminimum": 7023,
      "ainers": 7024,
      "ilar": 7025,
      "LOGGER": 7026,
      "olt": 7027,
      "åŃĺ": 7028,
      "semb": 7029,
      "PL": 7030,
      "detail": 7031,
      "uer": 7032,
      "ado": 7033,
      "Annot": 7034,
      "DER": 7035,
      "rgb": 7036,
      "Reason": 7037,
      "gregation": 7038,
      "Ġpromise": 7039,
      "Css": 7040,
      "[\\": 7041,
      "Ġbasic": 7042,
      "Enable": 7043,
      "pology": 7044,
      "Debugf": 7045,
      "Attach": 7046,
      "Expected": 7047,
      "awt": 7048,
      "08": 7049,
      "entities": 7050,
      "čĊčĊĠĠĠ": 7051,
      "ĠAss": 7052,
      "Links": 7053,
      "47": 7054,
      "Ġmut": 7055,
      "Ġhistory": 7056,
      "Ġrate": 7057,
      "ĠOS": 7058,
      "Ġconfigure": 7059,
      "virt": 7060,
      "ttl": 7061,
      "Ġ((($": 7062,
      "ĠBig": 7063,
      "Ġgit": 7064,
      "enticate": 7065,
      "CHAR": 7066,
      "ferred": 7067,
      "loser": 7068,
      "activity": 7069,
      "ĠSw": 7070,
      "ĠApplication": 7071,
      "Ġforward": 7072,
      "Ġcaller": 7073,
      "closed": 7074,
      "Ġverbose": 7075,
      "uest": 7076,
      "Basic": 7077,
      "illed": 7078,
      "Ġdecl": 7079,
      "ĠInitial": 7080,
      "pm": 7081,
      "pipe": 7082,
      "EM": 7083,
      "SIG": 7084,
      "]));": 7085,
      "čĊĠĠĠĠĠĠĠĠĠĠĠĠĠĠĠĠĠĠĠĠĠĠĠĠĠĠĠ": 7086,
      "usage": 7087,
      "inger": 7088,
      "oodle": 7089,
      "Random": 7090,
      "ĠSend": 7091,
      "Ġcomput": 7092,
      "Ġam": 7093,
      "jax": 7094,
      "tain": 7095,
      "Algorithm": 7096,
      "changes": 7097,
      "}:": 7098,
      "ancest": 7099,
      "\"+": 7100,
      "Setup": 7101,
      "Rec": 7102,
      "Js": 7103,
      "distance": 7104,
      "kb": 7105,
      "Addresses": 7106,
      "Ġpriority": 7107,
      "lid": 7108,
      "_'": 7109,
      "partition": 7110,
      "Parses": 7111,
      "Ġactually": 7112,
      "fac": 7113,
      "LOCK": 7114,
      "keep": 7115,
      "getNode": 7116,
      "Ġresolved": 7117,
      "ĠĠĠĠĠĠĠĠĠĠĠĠĠĠĠĠĠĠĠ": 7118,
      "Ġpadding": 7119,
      "racket": 7120,
      "oose": 7121,
      "Platform": 7122,
      "need": 7123,
      "raction": 7124,
      "]{": 7125,
      "ĠSign": 7126,
      "Present": 7127,
      "Ġautomat": 7128,
      "OIN": 7129,
      "ä¼": 7130,
      "9999": 7131,
      "percent": 7132,
      "NGTH": 7133,
      "ĠJAXBElement": 7134,
      "Ġcss": 7135,
      "sd": 7136,
      "Ġstarts": 7137,
      "Ġredu": 7138,
      "Ġvariant": 7139,
      "Branch": 7140,
      "python": 7141,
      "Ġremoves": 7142,
      "SR": 7143,
      "']),": 7144,
      "ĠAction": 7145,
      "Ġbelow": 7146,
      "ysc": 7147,
      "resolved": 7148,
      "____": 7149,
      "$/": 7150,
      "iness": 7151,
      "Ċĉĉĉĉĉĉĉĉĉ": 7152,
      "rypto": 7153,
      "Ġreferences": 7154,
      "filtered": 7155,
      "crete": 7156,
      "snapshot": 7157,
      "Program": 7158,
      "Ġabove": 7159,
      "ÐµÐ½": 7160,
      "Ġproc": 7161,
      "Ġready": 7162,
      "Flush": 7163,
      "Matches": 7164,
      "LENGTH": 7165,
      "states": 7166,
      "\".$": 7167,
      "etype": 7168,
      "Shard": 7169,
      "Begin": 7170,
      "Ġ'?": 7171,
      "iry": 7172,
      "olr": 7173,
      "ĠFirst": 7174,
      "dirs": 7175,
      "getMethod": 7176,
      "REST": 7177,
      "AST": 7178,
      "Ġfiltered": 7179,
      "nest": 7180,
      "Ġcour": 7181,
      "panded": 7182,
      "Ġscheme": 7183,
      "Ð¸Ð": 7184,
      "fact": 7185,
      "orders": 7186,
      "lv": 7187,
      "Ġ----": 7188,
      "ffers": 7189,
      "Ġshared": 7190,
      "obile": 7191,
      "Standard": 7192,
      "ĠGET": 7193,
      "fa": 7194,
      "WORD": 7195,
      "ĠInputStream": 7196,
      "cos": 7197,
      "inputs": 7198,
      "versation": 7199,
      "Components": 7200,
      "SCRIPT": 7201,
      "SUB": 7202,
      "segments": 7203,
      "Ġcenter": 7204,
      "getCode": 7205,
      "Ġ).": 7206,
      "Ġarea": 7207,
      "TED": 7208,
      "reduce": 7209,
      "nable": 7210,
      "Ġpython": 7211,
      "ĠNe": 7212,
      "ĠON": 7213,
      "brevi": 7214,
      "Ġ102": 7215,
      "Defaults": 7216,
      "Ġexact": 7217,
      "ierarchy": 7218,
      "Ġcurr": 7219,
      "urnal": 7220,
      "partial": 7221,
      "tri": 7222,
      "newInstance": 7223,
      "=[": 7224,
      "AF": 7225,
      "connected": 7226,
      "76": 7227,
      "Generates": 7228,
      "Ġsummary": 7229,
      "IFC": 7230,
      "Organization": 7231,
      "plica": 7232,
      "ĠExample": 7233,
      "Ġinputs": 7234,
      "Ġkeyword": 7235,
      "bus": 7236,
      "olumes": 7237,
      "Entities": 7238,
      "Ġwriting": 7239,
      "ĠLogger": 7240,
      "SHA": 7241,
      "Ġleg": 7242,
      "Article": 7243,
      "ĠCo": 7244,
      "Ġ{})": 7245,
      "bean": 7246,
      "Inner": 7247,
      "Geometry": 7248,
      "sel": 7249,
      "Dependency": 7250,
      "Ġsn": 7251,
      "Ġchart": 7252,
      "Initialize": 7253,
      "vendor": 7254,
      "dro": 7255,
      "éĩ": 7256,
      "Ġmanifest": 7257,
      "Sheet": 7258,
      "Google": 7259,
      "typ": 7260,
      "Ġpur": 7261,
      "Fragment": 7262,
      "GLOB": 7263,
      "got": 7264,
      "once": 7265,
      "LOC": 7266,
      "servers": 7267,
      "WARNING": 7268,
      "(\"-": 7269,
      "disk": 7270,
      "\"].": 7271,
      "ining": 7272,
      "Ġdisabled": 7273,
      "jected": 7274,
      "Produ": 7275,
      "WriteString": 7276,
      "MAGE": 7277,
      "ĠPython": 7278,
      "++]": 7279,
      "UTC": 7280,
      "ç¼": 7281,
      "units": 7282,
      "Ġds": 7283,
      "ResponseWriter": 7284,
      "Ġexplicit": 7285,
      "Chart": 7286,
      "phone": 7287,
      "æĪĲ": 7288,
      "setName": 7289,
      "201": 7290,
      "EventListener": 7291,
      "Foreign": 7292,
      "ĠPri": 7293,
      "Ġhparams": 7294,
      "Cfg": 7295,
      "ti": 7296,
      "Ġless": 7297,
      "ĠDatabase": 7298,
      "58": 7299,
      "under": 7300,
      "matched": 7301,
      "ĠIfc": 7302,
      "agraph": 7303,
      "Versions": 7304,
      "catalog": 7305,
      "Ġbig": 7306,
      "mform": 7307,
      "propertyName": 7308,
      "norm": 7309,
      "Ġwx": 7310,
      "Workflow": 7311,
      "Ġcommerce": 7312,
      "escaped": 7313,
      "usters": 7314,
      "asket": 7315,
      "Factor": 7316,
      "Extensions": 7317,
      "lier": 7318,
      "ĠVAL": 7319,
      "recursive": 7320,
      "fw": 7321,
      "fname": 7322,
      "Requests": 7323,
      "hr": 7324,
      "DEX": 7325,
      "LAB": 7326,
      "ench": 7327,
      "MIT": 7328,
      "car": 7329,
      "agger": 7330,
      "ividual": 7331,
      "Origin": 7332,
      "aker": 7333,
      "Week": 7334,
      "Score": 7335,
      "Ġtick": 7336,
      "izing": 7337,
      "formed": 7338,
      "apps": 7339,
      "venement": 7340,
      "Ġlists": 7341,
      "avel": 7342,
      "TOKEN": 7343,
      "versions": 7344,
      "inline": 7345,
      "valuation": 7346,
      "attachment": 7347,
      "anitize": 7348,
      "atype": 7349,
      "pound": 7350,
      "'=>$": 7351,
      "clazz": 7352,
      "Patch": 7353,
      "Ġbackground": 7354,
      "orph": 7355,
      "rollers": 7356,
      "-\\": 7357,
      "math": 7358,
      "éĹ": 7359,
      "yscall": 7360,
      "Ġsec": 7361,
      "OwnProperty": 7362,
      "Ġpick": 7363,
      "Ġfree": 7364,
      "Ġdialog": 7365,
      "åį": 7366,
      "fit": 7367,
      "getContext": 7368,
      "pay": 7369,
      "Console": 7370,
      "Routes": 7371,
      "packages": 7372,
      "ĠFormat": 7373,
      "timezone": 7374,
      "][]": 7375,
      "ĠRecord": 7376,
      "MAP": 7377,
      "lif": 7378,
      "character": 7379,
      "ssh": 7380,
      "serialized": 7381,
      "additional": 7382,
      "ĠModule": 7383,
      "Ġbackup": 7384,
      "Ġfast": 7385,
      "ĠDO": 7386,
      "')))": 7387,
      "Alloc": 7388,
      "Notify": 7389,
      "ane": 7390,
      "Ġdigest": 7391,
      "andidates": 7392,
      "ROOT": 7393,
      "ivery": 7394,
      "NewErrParamRequired": 7395,
      "Ġ(!(": 7396,
      "Ġinitialized": 7397,
      "Ġcompleted": 7398,
      "åıĤ": 7399,
      "åĲ¦": 7400,
      "RAY": 7401,
      "]\",": 7402,
      "ĠRegister": 7403,
      "ĊĠĠĠĠĠĠĠĠĠĠĠĠĠĠĠĠĠĠĠĠĠĠĠĠĠĠĠĠĠĠĠĠĠĠĠĠĠĠ": 7404,
      "Ġcloud": 7405,
      "Ġpages": 7406,
      "lies": 7407,
      "Ġrelationship": 7408,
      "Ġinvok": 7409,
      "ae": 7410,
      "('--": 7411,
      "cwd": 7412,
      "tm": 7413,
      "Ġmet": 7414,
      "Move": 7415,
      "flux": 7416,
      "retty": 7417,
      "ĠAssert": 7418,
      "inheritdoc": 7419,
      "aking": 7420,
      "IR": 7421,
      "Refresh": 7422,
      "middleware": 7423,
      "Ġadding": 7424,
      "UPDATE": 7425,
      "Ġreads": 7426,
      "Ġtransport": 7427,
      "periment": 7428,
      "ArrayList": 7429,
      "ATCH": 7430,
      "beat": 7431,
      "Supported": 7432,
      "Ġmodify": 7433,
      "è¦": 7434,
      "CFG": 7435,
      "ĠRoute": 7436,
      "sources": 7437,
      "EOF": 7438,
      "CHAN": 7439,
      "Ġcomments": 7440,
      "sock": 7441,
      "PRI": 7442,
      "getContent": 7443,
      "Ġbad": 7444,
      "Ġdynamic": 7445,
      "Ġconnected": 7446,
      "CC": 7447,
      "NV": 7448,
      "ITION": 7449,
      "cnt": 7450,
      "ĠLocal": 7451,
      "Sent": 7452,
      "Reply": 7453,
      "::_": 7454,
      "Feed": 7455,
      "Units": 7456,
      "fragment": 7457,
      "Indent": 7458,
      "article": 7459,
      "ez": 7460,
      "Reser": 7461,
      "\\\":": 7462,
      "ceed": 7463,
      "channels": 7464,
      "Closed": 7465,
      "ĠStop": 7466,
      "Distance": 7467,
      "ĠStore": 7468,
      "Ġunits": 7469,
      "eof": 7470,
      "Ġchecking": 7471,
      "ĠCSS": 7472,
      "quare": 7473,
      "Ġvalidator": 7474,
      "IZ": 7475,
      "GEN": 7476,
      "EVENT": 7477,
      "Stmt": 7478,
      "Ġenum": 7479,
      "Ġ{}'.": 7480,
      "swing": 7481,
      "Example": 7482,
      "defaultValue": 7483,
      "Fill": 7484,
      "Tax": 7485,
      "ji": 7486,
      "panel": 7487,
      "Ġpartial": 7488,
      "olicies": 7489,
      "readcr": 7490,
      "å¼ı": 7491,
      "Ġ11": 7492,
      "IV": 7493,
      "~~": 7494,
      "------------": 7495,
      "43": 7496,
      "olation": 7497,
      "ĠTemplate": 7498,
      "\",\"": 7499,
      "Ġlogs": 7500,
      "ĠCLI": 7501,
      "Ġcoordinates": 7502,
      "SPACE": 7503,
      "Ġmat": 7504,
      "stringify": 7505,
      "ĠTry": 7506,
      "consumer": 7507,
      "ç»Ħ": 7508,
      "Ġlang": 7509,
      "Ġhostname": 7510,
      "seek": 7511,
      "ysical": 7512,
      "Ġformatter": 7513,
      "cid": 7514,
      "FLA": 7515,
      "getColumn": 7516,
      "ĊĊĠĠĠĠĠĠĠĠĠĠĠĠĠĠĠĠĠĠĠĠĠĠĠĠĠĠĠ": 7517,
      "shutdown": 7518,
      "YPE": 7519,
      "ĠId": 7520,
      "Ġscroll": 7521,
      "Association": 7522,
      "Dev": 7523,
      "Ġ30": 7524,
      "Ġserialized": 7525,
      "REG": 7526,
      "ĊĊĠĠĠĠĠĠĠĠ": 7527,
      "PROPERTY": 7528,
      "aper": 7529,
      "repeat": 7530,
      "decimal": 7531,
      "setText": 7532,
      "getAll": 7533,
      "mixed": 7534,
      "timer": 7535,
      "Ġ])": 7536,
      "Artifact": 7537,
      "nav": 7538,
      "Errs": 7539,
      "Ġunderlying": 7540,
      "INVALID": 7541,
      "Ġoptim": 7542,
      "Must": 7543,
      "cus": 7544,
      "Ġdestroy": 7545,
      "unicode": 7546,
      "ErrInvalidParams": 7547,
      "(\".": 7548,
      "Ġ</": 7549,
      "Div": 7550,
      "Ġla": 7551,
      "getElement": 7552,
      "NODE": 7553,
      "Src": 7554,
      ">\";": 7555,
      "PublicKey": 7556,
      "FOLLOW": 7557,
      "()):": 7558,
      "servable": 7559,
      "nit": 7560,
      "manifest": 7561,
      "xpath": 7562,
      "Capacity": 7563,
      "CUR": 7564,
      "sender": 7565,
      "calendar": 7566,
      "Currency": 7567,
      "Ġoperations": 7568,
      "Changes": 7569,
      "ĠSearch": 7570,
      "Pages": 7571,
      "More": 7572,
      "cod": 7573,
      "CONNE": 7574,
      "Ġdue": 7575,
      "endswith": 7576,
      "Relationship": 7577,
      "Tile": 7578,
      "Activ": 7579,
      "focus": 7580,
      "åŀ": 7581,
      "person": 7582,
      "singleton": 7583,
      "revision": 7584,
      "klog": 7585,
      "ĊĠĠĠĠĠĠĠĠĠĠĠĠĠĠĠĠĠĠĠĠĠĠĠĠĠĠĠĠĠĠĠĠĠĠĠĠĠ": 7586,
      "ymlink": 7587,
      "tls": 7588,
      "Ġwrapped": 7589,
      "][\"": 7590,
      "Ġfixed": 7591,
      "Ġ'@": 7592,
      "ridge": 7593,
      "ĠBuffered": 7594,
      "CACHE": 7595,
      "Hint": 7596,
      "twig": 7597,
      "('.',": 7598,
      "ĠNext": 7599,
      "ceptor": 7600,
      "ĠConstants": 7601,
      "enant": 7602,
      "Definitions": 7603,
      "RUnlock": 7604,
      "Shape": 7605,
      "åŀĭ": 7606,
      ".,": 7607,
      "Ġeval": 7608,
      "Modules": 7609,
      "ĠPost": 7610,
      "ĠAccess": 7611,
      "parseInt": 7612,
      "Connector": 7613,
      "LIN": 7614,
      "bined": 7615,
      "Ġshift": 7616,
      "Ġentities": 7617,
      "Ġstrip": 7618,
      "Ġchecked": 7619,
      "'\",": 7620,
      "Li": 7621,
      "Country": 7622,
      "67": 7623,
      "\"`": 7624,
      "izable": 7625,
      "ĠMax": 7626,
      "mock": 7627,
      "__)": 7628,
      "Ġconnections": 7629,
      "dependencies": 7630,
      "Ġmarker": 7631,
      "special": 7632,
      "('/^": 7633,
      "Ġproblem": 7634,
      "(?:": 7635,
      "41": 7636,
      "Logs": 7637,
      "Ġfeed": 7638,
      "ĠOR": 7639,
      "Theme": 7640,
      "Ġlex": 7641,
      "¦Ĥ": 7642,
      "Ġfp": 7643,
      "ueprint": 7644,
      "ands": 7645,
      "del": 7646,
      "Adresse": 7647,
      "Ġvertex": 7648,
      "Ġclause": 7649,
      "Download": 7650,
      "pping": 7651,
      "LAY": 7652,
      "Resolve": 7653,
      "Ċĉĉĉĉĉĉĉĉĉĉĉ": 7654,
      "Registration": 7655,
      ".'.": 7656,
      "colors": 7657,
      "urls": 7658,
      "ceeded": 7659,
      "ĠfileName": 7660,
      "[:-": 7661,
      "inheritDoc": 7662,
      "absolute": 7663,
      "ClassLoader": 7664,
      "ĠLinked": 7665,
      "ĊĉĠĠĠĠĠĠĠ": 7666,
      "Ġps": 7667,
      "qb": 7668,
      "Verify": 7669,
      "listeners": 7670,
      "compress": 7671,
      "Ġcalendar": 7672,
      "nn": 7673,
      "Ġ\".\"": 7674,
      "Ġstmt": 7675,
      "Ġgeometry": 7676,
      "aims": 7677,
      "plural": 7678,
      "Ġconverts": 7679,
      "Unsupported": 7680,
      "former": 7681,
      "urable": 7682,
      "ĠHashSet": 7683,
      "'=>'": 7684,
      "Ġsym": 7685,
      "seed": 7686,
      "ĠSource": 7687,
      "Ġ'+": 7688,
      "Ġtemporary": 7689,
      "cpu": 7690,
      "cart": 7691,
      "Ġshell": 7692,
      "Ġdev": 7693,
      "((*": 7694,
      "Ġwrites": 7695,
      "auge": 7696,
      "90": 7697,
      "Ġshard": 7698,
      "framework": 7699,
      "getConnection": 7700,
      "getResponse": 7701,
      "RED": 7702,
      "Ġyaml": 7703,
      "Break": 7704,
      "Ġnotify": 7705,
      "ĠValidation": 7706,
      "Ġ'__": 7707,
      "counts": 7708,
      "Ġtimer": 7709,
      "Ġchars": 7710,
      "Old": 7711,
      "relationship": 7712,
      "cannot": 7713,
      "Exceptions": 7714,
      "Drop": 7715,
      "nullable": 7716,
      "refs": 7717,
      "Fixed": 7718,
      "ru": 7719,
      "getText": 7720,
      "ĠNull": 7721,
      "shared": 7722,
      "([$": 7723,
      "andsh": 7724,
      "Threshold": 7725,
      "ãĤĴ": 7726,
      "ially": 7727,
      "ems": 7728,
      "MPTY": 7729,
      "dumps": 7730,
      "Logging": 7731,
      "éĻ": 7732,
      "Ł¥": 7733,
      "Ġfig": 7734,
      "outil": 7735,
      "spection": 7736,
      ".\\": 7737,
      "rollback": 7738,
      "sections": 7739,
      "coords": 7740,
      "USE": 7741,
      "ĠÐ¿": 7742,
      "ilen": 7743,
      "Ġvars": 7744,
      "veloper": 7745,
      "Replication": 7746,
      "ASC": 7747,
      "docker": 7748,
      "Super": 7749,
      ".%": 7750,
      "dating": 7751,
      "Analy": 7752,
      "Tracker": 7753,
      "FUNCTION": 7754,
      "GIN": 7755,
      "FieldName": 7756,
      "ĠParameter": 7757,
      "ATTRIB": 7758,
      "artbeat": 7759,
      "95": 7760,
      "Ġem": 7761,
      "Symfony": 7762,
      "}',": 7763,
      "Fault": 7764,
      "mult": 7765,
      "],[": 7766,
      "Ġretval": 7767,
      "åľ¨": 7768,
      "ĠXml": 7769,
      "authorization": 7770,
      "featureID": 7771,
      ")\"": 7772,
      "Ġanything": 7773,
      "ĠAttributeError": 7774,
      "85": 7775,
      "steps": 7776,
      "ĠIDs": 7777,
      "Predicate": 7778,
      "best": 7779,
      ",.": 7780,
      "Pk": 7781,
      "Ġbuilt": 7782,
      "expire": 7783,
      "ĠStringBuffer": 7784,
      "Ġdeli": 7785,
      "foot": 7786,
      "Ġdispatch": 7787,
      "samples": 7788,
      "getObject": 7789,
      "RLock": 7790,
      "Ġreject": 7791,
      "enario": 7792,
      "Zip": 7793,
      "deprecated": 7794,
      "åī": 7795,
      "Ġfragment": 7796,
      "printStackTrace": 7797,
      "Ġcreation": 7798,
      "Ġtre": 7799,
      "quivalent": 7800,
      "hasOwnProperty": 7801,
      "styles": 7802,
      "Ġincluded": 7803,
      "Ġoccurs": 7804,
      "Nested": 7805,
      "GROUP": 7806,
      "gate": 7807,
      "Ġpad": 7808,
      "Ġshutdown": 7809,
      "Infos": 7810,
      "Ġsmall": 7811,
      "Such": 7812,
      "Ġcases": 7813,
      "ĠYou": 7814,
      "tz": 7815,
      "toupper": 7816,
      "dns": 7817,
      "currentTime": 7818,
      "Slot": 7819,
      "methodName": 7820,
      "Words": 7821,
      "served": 7822,
      "Git": 7823,
      "Require": 7824,
      "Ġroutes": 7825,
      "MLE": 7826,
      "structs": 7827,
      "Ġcompiler": 7828,
      "ĠPrint": 7829,
      "must": 7830,
      "Percent": 7831,
      "åŃĹç¬¦": 7832,
      "ĠLine": 7833,
      "åĪĹ": 7834,
      "blog": 7835,
      ">\");": 7836,
      "Ġeffect": 7837,
      "ĠComp": 7838,
      "CB": 7839,
      "retval": 7840,
      "orderBy": 7841,
      "Try": 7842,
      "Ġstderr": 7843,
      "times": 7844,
      "through": 7845,
      "_\\\\": 7846,
      "icator": 7847,
      "statusCode": 7848,
      "Ġseen": 7849,
      "->__": 7850,
      "ĠCloud": 7851,
      "newLine": 7852,
      "Ġpercent": 7853,
      "Ġnumeric": 7854,
      "Ġdirectories": 7855,
      "Mer": 7856,
      "Ġtim": 7857,
      "Ġhandling": 7858,
      "Deleted": 7859,
      "ĠVector": 7860,
      "ookies": 7861,
      "srv": 7862,
      "\\\"\"": 7863,
      "ĠSI": 7864,
      "åıĤæķ°": 7865,
      "!!": 7866,
      "chr": 7867,
      "setParameter": 7868,
      "Ġaddresses": 7869,
      "descriptor": 7870,
      "Ġradi": 7871,
      "igrate": 7872,
      "å¯¹è±¡": 7873,
      "['_": 7874,
      "Ġdetermin": 7875,
      "Mem": 7876,
      "exer": 7877,
      "configs": 7878,
      "Ġbounding": 7879,
      "choice": 7880,
      "Ġvirtual": 7881,
      "redit": 7882,
      "Ġmiddleware": 7883,
      "ixin": 7884,
      "serializer": 7885,
      "that": 7886,
      "Ġmatcher": 7887,
      "Credential": 7888,
      "Middleware": 7889,
      "DataSource": 7890,
      "ãģĻ": 7891,
      "Attempt": 7892,
      "mapper": 7893,
      "Ġ\\$": 7894,
      "SECON": 7895,
      "{{": 7896,
      "Ġuc": 7897,
      "front": 7898,
      "Ġ$.": 7899,
      "Ġ*=": 7900,
      "ĠSpec": 7901,
      "mkdir": 7902,
      "marker": 7903,
      "Ġ':'": 7904,
      "Dial": 7905,
      "ĠĊĠĠĠ": 7906,
      "crease": 7907,
      "chat": 7908,
      "ĠWindow": 7909,
      "erruptedException": 7910,
      "migration": 7911,
      "Ġinvoke": 7912,
      "Ġwarning": 7913,
      "ĠPOST": 7914,
      "ga": 7915,
      "ĠVALUE": 7916,
      "Dom": 7917,
      "Final": 7918,
      "IE": 7919,
      "ocab": 7920,
      "Ship": 7921,
      "ĠSup": 7922,
      "Encryption": 7923,
      "ua": 7924,
      "000000": 7925,
      "arty": 7926,
      "128": 7927,
      "ĠMarshal": 7928,
      "ĠSQLException": 7929,
      "54": 7930,
      "irc": 7931,
      "UST": 7932,
      "threshold": 7933,
      "getSession": 7934,
      "Ġcard": 7935,
      "PTION": 7936,
      "63": 7937,
      "Ġoccurred": 7938,
      "AML": 7939,
      "GL": 7940,
      "II": 7941,
      "Compile": 7942,
      "bg": 7943,
      "ĠMod": 7944,
      "åĬł": 7945,
      "ĠGraph": 7946,
      "uent": 7947,
      "Compare": 7948,
      "ouch": 7949,
      "High": 7950,
      "Ġox": 7951,
      "verity": 7952,
      "mysql": 7953,
      "ulator": 7954,
      "inc": 7955,
      "LOAD": 7956,
      "Review": 7957,
      "HashMap": 7958,
      "ons": 7959,
      "Tri": 7960,
      "wit": 7961,
      "sqrt": 7962,
      "raps": 7963,
      "ĠgridBagConstraints": 7964,
      "mouse": 7965,
      "URN": 7966,
      "monitor": 7967,
      "Manifest": 7968,
      "mun": 7969,
      "casType": 7970,
      "Ġ----------": 7971,
      "()];": 7972,
      "tok": 7973,
      "Original": 7974,
      "IGN": 7975,
      "Hy": 7976,
      "icles": 7977,
      "Ġorig": 7978,
      "Ġtemplates": 7979,
      "ensure": 7980,
      "using": 7981,
      "ird": 7982,
      "Ġabort": 7983,
      "Ġpackages": 7984,
      "ĠGenerate": 7985,
      "Ġmerged": 7986,
      "Ġdelet": 7987,
      "Ġlocales": 7988,
      "Ġhold": 7989,
      "æģ": 7990,
      "Reads": 7991,
      "Browser": 7992,
      "Ġtok": 7993,
      "('/',": 7994,
      "bsite": 7995,
      "finder": 7996,
      "Ok": 7997,
      "reflect": 7998,
      "adapt": 7999,
      "Ġconditions": 8000,
      "Println": 8001,
      "Direction": 8002,
      "exceptions": 8003,
      "Ġ1024": 8004,
      "Blank": 8005,
      "Ġsegments": 8006,
      "Ġcc": 8007,
      "Ġindexes": 8008,
      "Ġfactor": 8009,
      "Ġhy": 8010,
      "Compute": 8011,
      "AMETER": 8012,
      "Delivery": 8013,
      "Ġdetect": 8014,
      "LEMENT": 8015,
      "rf": 8016,
      "Subnet": 8017,
      "'\"": 8018,
      "Ġsyntax": 8019,
      "ĠSerial": 8020,
      "Ops": 8021,
      "Rot": 8022,
      "Yii": 8023,
      "65": 8024,
      "Ġpa": 8025,
      "answer": 8026,
      "Ġrevision": 8027,
      "ĠFloat": 8028,
      "Ġassum": 8029,
      "Leg": 8030,
      "tracking": 8031,
      "Ġtermin": 8032,
      "aliases": 8033,
      "pn": 8034,
      "dimension": 8035,
      "Ġwarnings": 8036,
      "Ġworking": 8037,
      "vile": 8038,
      "med": 8039,
      "fig": 8040,
      "Pending": 8041,
      "ably": 8042,
      "Commands": 8043,
      "tcp": 8044,
      "ĠSort": 8045,
      "jobs": 8046,
      "Transformer": 8047,
      "Finder": 8048,
      "big": 8049,
      "ĠArrays": 8050,
      "Ġexecuted": 8051,
      "iso": 8052,
      "factor": 8053,
      "rror": 8054,
      "\"];": 8055,
      "itelist": 8056,
      "ĠOptions": 8057,
      "wards": 8058,
      "Ġcourse": 8059,
      "functions": 8060,
      "Ġroles": 8061,
      "Ġregular": 8062,
      "mediate": 8063,
      "70": 8064,
      "bos": 8065,
      "ĠLE": 8066,
      "Illegal": 8067,
      "increment": 8068,
      "ailability": 8069,
      "dispatcher": 8070,
      "curren": 8071,
      "Previous": 8072,
      ":])": 8073,
      ">()": 8074,
      "Ġfinish": 8075,
      "Processing": 8076,
      "Collect": 8077,
      "\"][\"": 8078,
      "åĪĨ": 8079,
      "ulated": 8080,
      "æģ¯": 8081,
      "æ³ķ": 8082,
      "Ġfit": 8083,
      "Ġifc": 8084,
      "Ġmonitor": 8085,
      "RENT": 8086,
      "Ġnegative": 8087,
      "Ġioutil": 8088,
      "hour": 8089,
      "ĠdefaultValue": 8090,
      "dp": 8091,
      "Ġincoming": 8092,
      "Ġcop": 8093,
      "phpcs": 8094,
      "Ġannotations": 8095,
      "\\\",\\\"": 8096,
      "bc": 8097,
      "Loads": 8098,
      "Builds": 8099,
      "aps": 8100,
      "Ġdimension": 8101,
      "atibility": 8102,
      "Ġpredicate": 8103,
      "ONG": 8104,
      "Ġdesired": 8105,
      "foo": 8106,
      "QueryBuilder": 8107,
      "which": 8108,
      "requests": 8109,
      "ĠComponent": 8110,
      "Ġvisible": 8111,
      "cussion": 8112,
      "Comput": 8113,
      "multiple": 8114,
      "Ġadjust": 8115,
      "åĪĻ": 8116,
      "eq": 8117,
      "OBJECT": 8118,
      "Framework": 8119,
      "AccessToken": 8120,
      "')||(": 8121,
      "Ġpag": 8122,
      "BER": 8123,
      "Ġsk": 8124,
      "Ġplt": 8125,
      "æĸ¹": 8126,
      "æİ¥": 8127,
      "Off": 8128,
      "Sig": 8129,
      "zeros": 8130,
      "Pane": 8131,
      "Ġsubscription": 8132,
      "Ġ}{@": 8133,
      "translations": 8134,
      "Blob": 8135,
      "assoc": 8136,
      "Ġedges": 8137,
      "Ġlin": 8138,
      "logs": 8139,
      "ĠUtil": 8140,
      "geo": 8141,
      "wall": 8142,
      "]).": 8143,
      "getX": 8144,
      "ĠSave": 8145,
      "ensity": 8146,
      "è¦ģ": 8147,
      "war": 8148,
      "áŀ": 8149,
      "decl": 8150,
      "DR": 8151,
      "ĠAp": 8152,
      "ĠCopy": 8153,
      "Attrs": 8154,
      "Ġcriteria": 8155,
      "ĠLook": 8156,
      "walk": 8157,
      "lastic": 8158,
      "'d": 8159,
      "edges": 8160,
      "izations": 8161,
      "ĠProject": 8162,
      "standard": 8163,
      "getMax": 8164,
      "Ġincluding": 8165,
      "ircle": 8166,
      "[],": 8167,
      "LoadBalancer": 8168,
      "ibling": 8169,
      "chemas": 8170,
      "configure": 8171,
      "restore": 8172,
      "oices": 8173,
      "flatten": 8174,
      "sim": 8175,
      "cue": 8176,
      "Ġsat": 8177,
      "getLocal": 8178,
      "Calcul": 8179,
      "Tuple": 8180,
      "allery": 8181,
      "registered": 8182,
      "formats": 8183,
      "([^": 8184,
      "StringUtils": 8185,
      "acklist": 8186,
      "compet": 8187,
      ")},": 8188,
      "72": 8189,
      "unsafe": 8190,
      "Ġthrown": 8191,
      "Ġautomatically": 8192,
      "ilenames": 8193,
      "Other": 8194,
      "aching": 8195,
      "Ġincrement": 8196,
      "Ġthreshold": 8197,
      "]}": 8198,
      "Ġmac": 8199,
      "Ġdom": 8200,
      "ev": 8201,
      "shell": 8202,
      "composer": 8203,
      "Nonnull": 8204,
      "Bin": 8205,
      "quences": 8206,
      "activate": 8207,
      "coe": 8208,
      "Sm": 8209,
      "Ġrouter": 8210,
      "alert": 8211,
      "scriptions": 8212,
      "Fix": 8213,
      "aven": 8214,
      "TypeName": 8215,
      "Ġ::": 8216,
      "aches": 8217,
      "Ġuid": 8218,
      "ĠSkip": 8219,
      "Ġtheme": 8220,
      "ĠVer": 8221,
      "kit": 8222,
      "ether": 8223,
      "Distribution": 8224,
      "ios": 8225,
      "workflow": 8226,
      "filesystem": 8227,
      "Ġpol": 8228,
      "Tim": 8229,
      "expires": 8230,
      "Getter": 8231,
      "parentNode": 8232,
      "Ġaround": 8233,
      "Ġ'-'": 8234,
      "Ġexpand": 8235,
      "CONTENT": 8236,
      "Zend": 8237,
      "ĠmethodName": 8238,
      "Ġloading": 8239,
      "tail": 8240,
      "recipient": 8241,
      "Quest": 8242,
      "Unt": 8243,
      "gable": 8244,
      "čĊĠĠĠĠ": 8245,
      "Customer": 8246,
      "nitro": 8247,
      "TOP": 8248,
      "iation": 8249,
      "Ġassume": 8250,
      "àº": 8251,
      "classname": 8252,
      "Syntax": 8253,
      "_(": 8254,
      "ATH": 8255,
      "Mappings": 8256,
      "armacy": 8257,
      "Ġlonger": 8258,
      "(\"\",": 8259,
      "Cols": 8260,
      "HOST": 8261,
      "Free": 8262,
      "getBody": 8263,
      "States": 8264,
      "Ġglob": 8265,
      "Ġ500": 8266,
      "ĠProperties": 8267,
      "Ġassigned": 8268,
      "UD": 8269,
      "\"',": 8270,
      "Digest": 8271,
      "Ġmail": 8272,
      "DNS": 8273,
      "kv": 8274,
      "aravel": 8275,
      "btn": 8276,
      "andshake": 8277,
      "ÑĮ": 8278,
      "Ġcandidate": 8279,
      "layers": 8280,
      "MOD": 8281,
      "delimiter": 8282,
      "ĠChannel": 8283,
      "atar": 8284,
      "Jobs": 8285,
      "riend": 8286,
      "Ġcopying": 8287,
      "ech": 8288,
      "inct": 8289,
      "subscription": 8290,
      "calculate": 8291,
      "Accessor": 8292,
      "literal": 8293,
      "Ġfr": 8294,
      "Ġcols": 8295,
      "Ġnormalized": 8296,
      "Retrieves": 8297,
      "79": 8298,
      "ats": 8299,
      "ingerprint": 8300,
      "alformed": 8301,
      "annotations": 8302,
      "ĠCO": 8303,
      "dependency": 8304,
      "/\"": 8305,
      "ette": 8306,
      "Functions": 8307,
      "keySet": 8308,
      "åĲĪ": 8309,
      "WT": 8310,
      "cognition": 8311,
      "Ġqueries": 8312,
      "Ġmapped": 8313,
      "ĠAWS": 8314,
      "(((": 8315,
      "Ġmem": 8316,
      "TableMap": 8317,
      "equal": 8318,
      "ĠZend": 8319,
      "nonce": 8320,
      "Statistics": 8321,
      "PAGE": 8322,
      "]):": 8323,
      "COUNT": 8324,
      "Ġdocumentation": 8325,
      "inu": 8326,
      ">,": 8327,
      "Ġcleanup": 8328,
      "translator": 8329,
      "ele": 8330,
      "ĠRa": 8331,
      "éĶ": 8332,
      "Ġtests": 8333,
      "Ġbottom": 8334,
      "ĠCustom": 8335,
      "ajor": 8336,
      "green": 8337,
      "Ġlatest": 8338,
      "ises": 8339,
      "Facade": 8340,
      "Ġsources": 8341,
      "forward": 8342,
      "queryBuilder": 8343,
      "indexes": 8344,
      "Ġpub": 8345,
      "onymous": 8346,
      "}),": 8347,
      "amps": 8348,
      "Ġdeprecated": 8349,
      "addChild": 8350,
      "Ġ\\'": 8351,
      "Segments": 8352,
      "Ġfact": 8353,
      "ĠUI": 8354,
      "Variant": 8355,
      "ByteArray": 8356,
      "ashes": 8357,
      "ĠBY": 8358,
      "!\");": 8359,
      "Pipeline": 8360,
      "verr": 8361,
      "Ġms": 8362,
      "Ġtargets": 8363,
      "Scaling": 8364,
      "getModel": 8365,
      "phpcsFile": 8366,
      "Mouse": 8367,
      "canvas": 8368,
      "Person": 8369,
      "ServletRequest": 8370,
      "################": 8371,
      "ĊĊĉĉĉĉĉ": 8372,
      "ifiable": 8373,
      "pear": 8374,
      "Conditions": 8375,
      "ĠĠĠĠĠĠĠĠĠĠĠĠĠĠĠĠĠ": 8376,
      "tagName": 8377,
      "endsWith": 8378,
      "soft": 8379,
      "dm": 8380,
      "ĠJOIN": 8381,
      "Ġplay": 8382,
      "PM": 8383,
      "remaining": 8384,
      "à¤": 8385,
      "Visitor": 8386,
      "ĠJS": 8387,
      "DED": 8388,
      "dif": 8389,
      "usted": 8390,
      "Arrays": 8391,
      "sence": 8392,
      "gateway": 8393,
      "ectors": 8394,
      "ĠÑģ": 8395,
      "Ġsha": 8396,
      "Dependencies": 8397,
      "Ġstates": 8398,
      "Sn": 8399,
      "hooks": 8400,
      "Templates": 8401,
      "\"\\": 8402,
      "AW": 8403,
      "Ġdocker": 8404,
      "ĠInter": 8405,
      "placeholder": 8406,
      "Received": 8407,
      "nov": 8408,
      "IDTH": 8409,
      "Qualified": 8410,
      "Ġparticular": 8411,
      "terms": 8412,
      "bounds": 8413,
      "ĠUUID": 8414,
      "Ġactivity": 8415,
      "åħ¥": 8416,
      "Doctrine": 8417,
      "CSS": 8418,
      "Ġextensions": 8419,
      "formatted": 8420,
      "Ġ'/')": 8421,
      "digit": 8422,
      "nan": 8423,
      "zen": 8424,
      "Ġteam": 8425,
      "wg": 8426,
      "Plural": 8427,
      "Ġpd": 8428,
      "wiki": 8429,
      "Ġhandles": 8430,
      "Assignment": 8431,
      "uncate": 8432,
      "Ġcs": 8433,
      "Ġfi": 8434,
      "setData": 8435,
      "Ġ201": 8436,
      "Ready": 8437,
      "Fire": 8438,
      "Comments": 8439,
      "ĠMark": 8440,
      "PARAMETER": 8441,
      "Ġiterable": 8442,
      "Ġfinished": 8443,
      "Ġdays": 8444,
      "stage": 8445,
      "targets": 8446,
      "Ġbelong": 8447,
      "Ġord": 8448,
      "ĠMust": 8449,
      "Ġden": 8450,
      "workspace": 8451,
      "CD": 8452,
      "Const": 8453,
      "Persistent": 8454,
      "Family": 8455,
      "Ġretrieves": 8456,
      "Ġbug": 8457,
      "construct": 8458,
      "Ġmis": 8459,
      "Ġsyn": 8460,
      "Ġgetting": 8461,
      "NONE": 8462,
      "LD": 8463,
      "fq": 8464,
      "INDEX": 8465,
      "(&$": 8466,
      "è·": 8467,
      "Ġlisten": 8468,
      "rev": 8469,
      "Ġapplied": 8470,
      "ãĤĭ": 8471,
      "Pe": 8472,
      "getClient": 8473,
      "processing": 8474,
      "inject": 8475,
      "ĠThrowable": 8476,
      "Disabled": 8477,
      "Hub": 8478,
      "Ġtranslation": 8479,
      "eom": 8480,
      "ENCE": 8481,
      "expect": 8482,
      "getLogger": 8483,
      "ĠDon": 8484,
      "AsString": 8485,
      "ante": 8486,
      "References": 8487,
      "ĠNow": 8488,
      "loss": 8489,
      "Ġinstanti": 8490,
      "Ġseed": 8491,
      "Ġ~": 8492,
      "ÐµÑĤ": 8493,
      "poly": 8494,
      "GLOBALS": 8495,
      "Ġwhose": 8496,
      "Ġenough": 8497,
      "æĢ": 8498,
      "ols": 8499,
      "ĠUN": 8500,
      "choices": 8501,
      "Ġeverything": 8502,
      "Ġnative": 8503,
      "Please": 8504,
      "months": 8505,
      "StringBuilder": 8506,
      "043": 8507,
      "Ġconverter": 8508,
      "Started": 8509,
      "Kube": 8510,
      "dap": 8511,
      "ĠFe": 8512,
      "éħ": 8513,
      "scribed": 8514,
      "CREATE": 8515,
      "ĠHas": 8516,
      "ĠRule": 8517,
      "velop": 8518,
      "relations": 8519,
      "62": 8520,
      "itemap": 8521,
      "Ġ']": 8522,
      "ventory": 8523,
      "ivot": 8524,
      "ĠStorage": 8525,
      "Ġanaly": 8526,
      "issue": 8527,
      "ĠEd": 8528,
      "languages": 8529,
      "ç§": 8530,
      "versed": 8531,
      "Ġliteral": 8532,
      "nested": 8533,
      "Ġ$(": 8534,
      "BACK": 8535,
      "åĲİ": 8536,
      "keywords": 8537,
      "ARRAY": 8538,
      "éħį": 8539,
      "Ðº": 8540,
      "library": 8541,
      "svg": 8542,
      "ĊĠĠĠĠĠĠĠĠĠĠĠĠĠĠĠĠĠĠĠĠĠĠĠĠĠĠĠĠĠĠĠĠĠĠĠĠĠĠĠĠĠ": 8543,
      "Ġmime": 8544,
      "Upgrade": 8545,
      "prompt": 8546,
      "Ġstrict": 8547,
      "404": 8548,
      "Cli": 8549,
      "Determine": 8550,
      "aybe": 8551,
      "Ġiv": 8552,
      "ĠMulti": 8553,
      "ĠBack": 8554,
      "floor": 8555,
      "associ": 8556,
      "ised": 8557,
      "Creation": 8558,
      "Stri": 8559,
      "ĠHandler": 8560,
      "ĠEX": 8561,
      "ĠTransaction": 8562,
      "unct": 8563,
      "ĠAnnotation": 8564,
      "Angle": 8565,
      "sin": 8566,
      "Ġ[%": 8567,
      "ĠInstance": 8568,
      "Dynamic": 8569,
      "ĠInit": 8570,
      "ascii": 8571,
      "radius": 8572,
      "Ġfallback": 8573,
      "Defined": 8574,
      "'ve": 8575,
      "enance": 8576,
      "ips": 8577,
      "Bootstrap": 8578,
      "å¸": 8579,
      "Ġwin": 8580,
      "LEFT": 8581,
      "ä¹": 8582,
      "åīį": 8583,
      "nl": 8584,
      "('\\\\": 8585,
      "ĠNOTE": 8586,
      "Ġbus": 8587,
      "OFF": 8588,
      "describe": 8589,
      "Py": 8590,
      "oned": 8591,
      "setProperty": 8592,
      "Prob": 8593,
      "connections": 8594,
      "parents": 8595,
      "Plugins": 8596,
      "Writes": 8597,
      "Ġturn": 8598,
      "Ġssl": 8599,
      "Ġmigration": 8600,
      "Ġlogged": 8601,
      "Ġcanvas": 8602,
      "alleng": 8603,
      "player": 8604,
      "hosts": 8605,
      "finish": 8606,
      "Launch": 8607,
      "ho": 8608,
      "Ġhidden": 8609,
      "dep": 8610,
      "__.": 8611,
      "onto": 8612,
      "ĠCre": 8613,
      "Kernel": 8614,
      "vector": 8615,
      "Ġduplicate": 8616,
      "Provision": 8617,
      "fra": 8618,
      "ĠMAX": 8619,
      "PK": 8620,
      "Prepare": 8621,
      "Ġjobs": 8622,
      "Ġartifact": 8623,
      "FromString": 8624,
      "Ġruns": 8625,
      "mant": 8626,
      "Recursive": 8627,
      "DeepCopy": 8628,
      "aming": 8629,
      "rd": 8630,
      "unce": 8631,
      "getSimple": 8632,
      "Ġangle": 8633,
      "Deletes": 8634,
      "Ġpreviously": 8635,
      "69": 8636,
      ":\",": 8637,
      "Ġfully": 8638,
      "Pub": 8639,
      "ä¸Ģä¸ª": 8640,
      "ERY": 8641,
      "Ġspaces": 8642,
      "çĲ": 8643,
      "flat": 8644,
      "ience": 8645,
      "ĠBuffer": 8646,
      "MLElement": 8647,
      "acc": 8648,
      "ErrorCode": 8649,
      "Loaded": 8650,
      "breviated": 8651,
      "Without": 8652,
      "Ġcsv": 8653,
      "train": 8654,
      "PrivateKey": 8655,
      "Hidden": 8656,
      "TEMP": 8657,
      "Follow": 8658,
      "esis": 8659,
      "Ġchecksum": 8660,
      "Ġhig": 8661,
      "ooter": 8662,
      "Ġdeployment": 8663,
      "Grant": 8664,
      "(!$": 8665,
      "ba": 8666,
      "reject": 8667,
      "Ġwalk": 8668,
      "Ġentire": 8669,
      "Assignable": 8670,
      "Ġgreater": 8671,
      "glob": 8672,
      "references": 8673,
      "latest": 8674,
      "Ġanswer": 8675,
      "ServerError": 8676,
      "Equals": 8677,
      "Images": 8678,
      "Forward": 8679,
      "OAuth": 8680,
      "Ġquote": 8681,
      "Ġreceive": 8682,
      ".)": 8683,
      "Define": 8684,
      "Ġsteps": 8685,
      "Sources": 8686,
      "Ġimplemented": 8687,
      "prof": 8688,
      "delivery": 8689,
      "cmp": 8690,
      "FileInfo": 8691,
      "vey": 8692,
      "uples": 8693,
      "ble": 8694,
      "syn": 8695,
      "ingleton": 8696,
      "Ġchan": 8697,
      "çĲĨ": 8698,
      "issues": 8699,
      "started": 8700,
      "Indexes": 8701,
      "ColumnName": 8702,
      "SERT": 8703,
      "stitution": 8704,
      "tas": 8705,
      "Ġ++$": 8706,
      "Pref": 8707,
      "generic": 8708,
      "Ð¾Ð²": 8709,
      "iq": 8710,
      "ĠOperation": 8711,
      "pin": 8712,
      "Ġwaiting": 8713,
      "geometry": 8714,
      "getRepository": 8715,
      "Ġws": 8716,
      "74": 8717,
      "Soft": 8718,
      "ĠPAR": 8719,
      "responses": 8720,
      "Locked": 8721,
      "Ġdimensions": 8722,
      "Uniform": 8723,
      "ournal": 8724,
      "&&(": 8725,
      "ORK": 8726,
      "serviceName": 8727,
      "Ġtail": 8728,
      "ĠImport": 8729,
      "dialog": 8730,
      "serve": 8731,
      "Ġkernel": 8732,
      "implode": 8733,
      "IFI": 8734,
      "Side": 8735,
      "when": 8736,
      "bootstrap": 8737,
      "readable": 8738,
      "taxonomy": 8739,
      "forum": 8740,
      "NotExist": 8741,
      "errs": 8742,
      "Center": 8743,
      "Ġlogic": 8744,
      "positor": 8745,
      "Ġchannels": 8746,
      "ĠUTF": 8747,
      "exist": 8748,
      "Handles": 8749,
      "cognitionException": 8750,
      "Phone": 8751,
      "cha": 8752,
      "Ġanalysis": 8753,
      "ĠME": 8754,
      "Stage": 8755,
      ")'": 8756,
      "Ġnorm": 8757,
      "ippet": 8758,
      "authentication": 8759,
      "ç±»åŀĭ": 8760,
      "Configs": 8761,
      "ĠSelect": 8762,
      "ĠUtils": 8763,
      "Ġsv": 8764,
      "IAL": 8765,
      "posal": 8766,
      "submission": 8767,
      "stdClass": 8768,
      "Ġcms": 8769,
      "getLast": 8770,
      "jango": 8771,
      "ious": 8772,
      ".+": 8773,
      "Ġmakes": 8774,
      "lications": 8775,
      "ĠCurrent": 8776,
      "Since": 8777,
      "unded": 8778,
      "UMN": 8779,
      "Ġep": 8780,
      "åĪ°": 8781,
      "authorized": 8782,
      "WA": 8783,
      "ĠRuntimeError": 8784,
      "getBase": 8785,
      "retrie": 8786,
      "hint": 8787,
      "amazon": 8788,
      "Ġtw": 8789,
      "getStatus": 8790,
      "processed": 8791,
      "Ġ13": 8792,
      "cipher": 8793,
      "Library": 8794,
      "ĠUrl": 8795,
      "ĠEOF": 8796,
      "ertificates": 8797,
      "ĠImmutable": 8798,
      "Ġsamples": 8799,
      "bra": 8800,
      "KNO": 8801,
      "many": 8802,
      "zzle": 8803,
      "Ġcolors": 8804,
      "audio": 8805,
      "pur": 8806,
      "ä¸²": 8807,
      "gg": 8808,
      "mc": 8809,
      "Ġcoordinate": 8810,
      "NewErrParamMin": 8811,
      "precision": 8812,
      "LIMIT": 8813,
      "warnings": 8814,
      "HasPrefix": 8815,
      "Ġtrig": 8816,
      "Ġextend": 8817,
      "dater": 8818,
      "ARD": 8819,
      "saved": 8820,
      "strument": 8821,
      "ĠBit": 8822,
      "Features": 8823,
      "Fprintf": 8824,
      "[_": 8825,
      "Ġplan": 8826,
      "micro": 8827,
      "Ġdeepcopy": 8828,
      "ocial": 8829,
      "ACL": 8830,
      "Home": 8831,
      "andbox": 8832,
      ".</": 8833,
      "è¾": 8834,
      "Quote": 8835,
      "Ġ');": 8836,
      "Ġcontained": 8837,
      "implement": 8838,
      "places": 8839,
      "Ġrescue": 8840,
      "Ġdelimiter": 8841,
      "atting": 8842,
      "Ġcar": 8843,
      "Ġclosing": 8844,
      "Ġinline": 8845,
      "Unix": 8846,
      "Ġpot": 8847,
      "currentTimeMillis": 8848,
      "PR": 8849,
      ").'": 8850,
      "Ġsending": 8851,
      "XY": 8852,
      "au": 8853,
      "Ġaws": 8854,
      "Ġboot": 8855,
      "quick": 8856,
      "ä¿¡": 8857,
      "ĠWait": 8858,
      "Chars": 8859,
      "ELEMENT": 8860,
      "Ġstage": 8861,
      "Ġdns": 8862,
      "Ġmult": 8863,
      "ĠMatch": 8864,
      "phab": 8865,
      "atory": 8866,
      "Multiple": 8867,
      "Ġmysql": 8868,
      "Indices": 8869,
      "fficient": 8870,
      "erial": 8871,
      "Switch": 8872,
      "æŁ¥": 8873,
      "getFirst": 8874,
      "Docker": 8875,
      "mediately": 8876,
      "Embed": 8877,
      "åĩº": 8878,
      "Self": 8879,
      "84": 8880,
      "unpack": 8881,
      "ĠEnsure": 8882,
      "uber": 8883,
      "('',": 8884,
      "TERN": 8885,
      "é¡": 8886,
      "ĠPlease": 8887,
      "Native": 8888,
      "poll": 8889,
      "NaN": 8890,
      "TagName": 8891,
      "rw": 8892,
      "Catalog": 8893,
      "1000": 8894,
      "Fatal": 8895,
      "('{": 8896,
      "Ġcountry": 8897,
      "064": 8898,
      "Ġinject": 8899,
      "sider": 8900,
      "æĶ": 8901,
      "Destroy": 8902,
      "Dot": 8903,
      "posts": 8904,
      "Ġpanel": 8905,
      "basic": 8906,
      "Escape": 8907,
      "`)": 8908,
      "Ġ\"\\\"": 8909,
      "Resp": 8910,
      "Ġ(!($": 8911,
      "cookies": 8912,
      "mutex": 8913,
      "rank": 8914,
      "Ñĩ": 8915,
      "essaging": 8916,
      "Ġparses": 8917,
      "Specification": 8918,
      "LF": 8919,
      "ĠINT": 8920,
      "Ġslug": 8921,
      "Ġborder": 8922,
      "Alpha": 8923,
      "unlock": 8924,
      "Endpoints": 8925,
      "resize": 8926,
      "Ġrv": 8927,
      "ĊĠĠĠĠĠĠĠĠĠĠĠĠĠĠĠĠĠĠĠĠĠĠĠĠĠĠĠĠĠĠĠĠĠĠĠĠĠĠĠĠĠĠĠĠĠĠĠĠĠĠĠ": 8928,
      "Compiler": 8929,
      "')[": 8930,
      "Ġones": 8931,
      "Ġevt": 8932,
      "urvey": 8933,
      "Ġdigits": 8934,
      "Daemon": 8935,
      "kt": 8936,
      "lastIndex": 8937,
      "cedure": 8938,
      "MSG": 8939,
      "sa": 8940,
      "peed": 8941,
      "CLO": 8942,
      "WIDTH": 8943,
      "vered": 8944,
      "Ġchunks": 8945,
      "lineno": 8946,
      "Ġsender": 8947,
      "Ġ\"#": 8948,
      "Ġevaluate": 8949,
      "Delim": 8950,
      "ih": 8951,
      "Ġcontact": 8952,
      "COMM": 8953,
      "ACTION": 8954,
      "Cached": 8955,
      "Ġff": 8956,
      "ĠEntry": 8957,
      "mx": 8958,
      "æŃ": 8959,
      "ĠRepository": 8960,
      "Front": 8961,
      "Pixel": 8962,
      "Connected": 8963,
      "DAY": 8964,
      "ĩå®ļ": 8965,
      "Ġgp": 8966,
      "07": 8967,
      "ĠReference": 8968,
      "gration": 8969,
      "ipt": 8970,
      "ĠInst": 8971,
      "Added": 8972,
      "500": 8973,
      "icException": 8974,
      "Ġ\"]": 8975,
      "Ġpipeline": 8976,
      "week": 8977,
      "Ġmicro": 8978,
      "bindings": 8979,
      "Ratio": 8980,
      "den": 8981,
      "Ġtrailing": 8982,
      "attempt": 8983,
      "Coverage": 8984,
      "failure": 8985,
      "getSimpleName": 8986,
      "PUB": 8987,
      "ethe": 8988,
      "normalized": 8989,
      ")<": 8990,
      "Relative": 8991,
      "Pull": 8992,
      "ĠBad": 8993,
      "general": 8994,
      "positories": 8995,
      "Migration": 8996,
      "ij": 8997,
      "rott": 8998,
      "Ġtransition": 8999,
      "Ġwhole": 9000,
      "GroupName": 9001,
      "è½¬": 9002,
      "perm": 9003,
      "allErrs": 9004,
      "getter": 9005,
      "Transition": 9006,
      "FINE": 9007,
      "riterion": 9008,
      "columnName": 9009,
      "Mac": 9010,
      "respond": 9011,
      "Mon": 9012,
      "stamps": 9013,
      "Ġfront": 9014,
      "rome": 9015,
      "\\\"),": 9016,
      "Workspace": 9017,
      "peg": 9018,
      "ummy": 9019,
      "Den": 9020,
      "Ġeas": 9021,
      "fixed": 9022,
      "Ġfname": 9023,
      "Ġmade": 9024,
      "ĠOb": 9025,
      "PP": 9026,
      "Ġcallbacks": 9027,
      "Ġattachment": 9028,
      "Layers": 9029,
      "Watcher": 9030,
      "Ġev": 9031,
      "ĠOrder": 9032,
      "Ġgl": 9033,
      "Ġexpired": 9034,
      "bro": 9035,
      "Round": 9036,
      "}{": 9037,
      "phrase": 9038,
      "FFFF": 9039,
      "}\";": 9040,
      "Ġinherit": 9041,
      "brid": 9042,
      "Ġ50": 9043,
      "helpers": 9044,
      "ASS": 9045,
      "MAR": 9046,
      "going": 9047,
      "native": 9048,
      "Ġiteration": 9049,
      "holders": 9050,
      "ĠUnmarshalJSON": 9051,
      "eventName": 9052,
      "EW": 9053,
      "Filesystem": 9054,
      "based": 9055,
      "BB": 9056,
      "strategy": 9057,
      "ĠThere": 9058,
      "campaign": 9059,
      "Curve": 9060,
      "orth": 9061,
      "flash": 9062,
      "Ġels": 9063,
      "Ġmaybe": 9064,
      "My": 9065,
      "mq": 9066,
      "Ġbetter": 9067,
      "Ġdevices": 9068,
      "COLOR": 9069,
      "Ġrenderer": 9070,
      "¦Ĥæŀľ": 9071,
      "ius": 9072,
      "'][]": 9073,
      "program": 9074,
      "Ġ%(": 9075,
      "__(": 9076,
      "Ġhandled": 9077,
      "Oneof": 9078,
      "/:": 9079,
      "iet": 9080,
      "Ġear": 9081,
      "logrus": 9082,
      "Keyword": 9083,
      "future": 9084,
      "Ġcipher": 9085,
      "Ġable": 9086,
      "Ġtrying": 9087,
      "Termin": 9088,
      "Checker": 9089,
      "Ð²": 9090,
      "Ġradius": 9091,
      "game": 9092,
      "TRY": 9093,
      "Ġdirname": 9094,
      "Mime": 9095,
      "userAgent": 9096,
      "avor": 9097,
      "sures": 9098,
      "getInt": 9099,
      "ster": 9100,
      "getWidth": 9101,
      "OW": 9102,
      "Using": 9103,
      "ilent": 9104,
      "FIL": 9105,
      "astic": 9106,
      "Ġmouse": 9107,
      "perform": 9108,
      "Ġdecimal": 9109,
      "Ġproperly": 9110,
      "çł": 9111,
      "returnValue": 9112,
      "nodeName": 9113,
      "shard": 9114,
      "ĠPlugin": 9115,
      "Ġquestion": 9116,
      "prox": 9117,
      "statements": 9118,
      "Restore": 9119,
      "Ġexecutor": 9120,
      "maj": 9121,
      "Cost": 9122,
      "æ®": 9123,
      "legend": 9124,
      "apache": 9125,
      "Extended": 9126,
      "callbacks": 9127,
      "Mutex": 9128,
      "produ": 9129,
      "ĠGit": 9130,
      "Ġtranslate": 9131,
      "Ġpositive": 9132,
      "rune": 9133,
      "Sim": 9134,
      "Dataset": 9135,
      "Ġdefinitions": 9136,
      "MAN": 9137,
      "apsed": 9138,
      "getAbsolute": 9139,
      "Signal": 9140,
      "68": 9141,
      "splice": 9142,
      "!==": 9143,
      "ĊĠĠĠĠĠĠĠĠĠĠĠĠĠĠĠĠĊĠĠĠĠĠĠĠĠĠĠĠĠĠĠĠ": 9144,
      "Ġez": 9145,
      "seg": 9146,
      "Ġ'[": 9147,
      "Deprecated": 9148,
      "Ġpopulate": 9149,
      "getItem": 9150,
      "lists": 9151,
      "Ġalert": 9152,
      "-'": 9153,
      "']));": 9154,
      "plier": 9155,
      "arbon": 9156,
      "čĊĉĉĉĉĉĉĉ": 9157,
      "ital": 9158,
      "53": 9159,
      "Tmp": 9160,
      "deep": 9161,
      "Ġpull": 9162,
      "elseif": 9163,
      "When": 9164,
      "ello": 9165,
      "inspect": 9166,
      "Php": 9167,
      "Ġpt": 9168,
      "javascript": 9169,
      "EMPTY": 9170,
      "amma": 9171,
      "ĠDecode": 9172,
      "maps": 9173,
      "çłģ": 9174,
      "CN": 9175,
      "Force": 9176,
      "zoom": 9177,
      "constant": 9178,
      "Ġneighb": 9179,
      "61": 9180,
      "Book": 9181,
      "alette": 9182,
      "Ġputs": 9183,
      "Emit": 9184,
      "adline": 9185,
      "Maps": 9186,
      "called": 9187,
      "DIRECTORY": 9188,
      "virtual": 9189,
      "Ġrecursive": 9190,
      "Inline": 9191,
      "ĊĠĠĠĠĠĠĠĠĠĠĠĠĠĠĠĠĠĠĠĠĠĠĠĠĠĠĠĠĠĠĠĠĠĠĠĠĠĠĠĠĠĠ": 9192,
      "ral": 9193,
      "Ġsolution": 9194,
      "ĠgetAll": 9195,
      "ĠĠĠĠĠĠĠĠĠĠĠĠĠĠĠĠĠĠ": 9196,
      "caller": 9197,
      "ldap": 9198,
      "tics": 9199,
      "unable": 9200,
      "explode": 9201,
      "Ġ\\\\": 9202,
      "Runner": 9203,
      "Ġresolver": 9204,
      "IDR": 9205,
      "ĠCalendar": 9206,
      "cycle": 9207,
      "aler": 9208,
      "getSource": 9209,
      "Flash": 9210,
      "agn": 9211,
      "logical": 9212,
      "+(": 9213,
      "allenge": 9214,
      "}\")": 9215,
      "Ð°Ð½": 9216,
      "hest": 9217,
      "ĠFF": 9218,
      "zA": 9219,
      "Views": 9220,
      "Pur": 9221,
      "ĠNAME": 9222,
      "blank": 9223,
      "bam": 9224,
      "nc": 9225,
      "yes": 9226,
      "association": 9227,
      "Ġarch": 9228,
      "versal": 9229,
      "ĠPattern": 9230,
      "touch": 9231,
      "converter": 9232,
      "Ġconstants": 9233,
      "feedback": 9234,
      "Principal": 9235,
      "ĠComple": 9236,
      "Ġconstraints": 9237,
      "Ġreadable": 9238,
      "icip": 9239,
      "Ġupgrade": 9240,
      "levant": 9241,
      "ĠClosure": 9242,
      "Same": 9243,
      "TCP": 9244,
      "asis": 9245,
      "ĠIgnore": 9246,
      "eNS": 9247,
      "aken": 9248,
      "Does": 9249,
      "TIMEOUT": 9250,
      "pipeline": 9251,
      "Ġ?>": 9252,
      "Ġoverwrite": 9253,
      "Ġincludes": 9254,
      "Invocation": 9255,
      "Slug": 9256,
      "]],": 9257,
      "ĠBuilder": 9258,
      "queries": 9259,
      "Related": 9260,
      "ĠGo": 9261,
      "Ġtouch": 9262,
      "ĠParser": 9263,
      "Ġthreads": 9264,
      "Ġterms": 9265,
      "illiseconds": 9266,
      "Ġ!(": 9267,
      "Validates": 9268,
      "assignment": 9269,
      "evt": 9270,
      "ĠCommon": 9271,
      "52": 9272,
      "Ġdeploy": 9273,
      "ConversionFunc": 9274,
      "Annotate": 9275,
      "ever": 9276,
      "chunks": 9277,
      "Like": 9278,
      "constants": 9279,
      "ternative": 9280,
      "inf": 9281,
      "MElement": 9282,
      "Ġmapper": 9283,
      "Managed": 9284,
      "checkbox": 9285,
      "getRoot": 9286,
      "FR": 9287,
      "eZ": 9288,
      "lim": 9289,
      "Ġsubprocess": 9290,
      "Gra": 9291,
      "Padding": 9292,
      "ĠCR": 9293,
      "tot": 9294,
      "{}{": 9295,
      "Ġsigned": 9296,
      "ĠVM": 9297,
      "arc": 9298,
      "Ġvals": 9299,
      "åŃĹç¬¦ä¸²": 9300,
      "}).": 9301,
      "ordered": 9302,
      "getBytes": 9303,
      "anned": 9304,
      "Ġcatalog": 9305,
      "basePath": 9306,
      "Ġund": 9307,
      "Terminal": 9308,
      "ĠNetwork": 9309,
      "Ġworks": 9310,
      "named": 9311,
      "Ġhit": 9312,
      "Ġcodes": 9313,
      "POINT": 9314,
      "Xbase": 9315,
      "Associ": 9316,
      "{}'.": 9317,
      "Ġfilesystem": 9318,
      "organization": 9319,
      "Ġconcat": 9320,
      "rift": 9321,
      "çŃ": 9322,
      "Modify": 9323,
      "iance": 9324,
      "åı¯": 9325,
      "ĠByteArray": 9326,
      "Ġconfirm": 9327,
      "Ġstatistics": 9328,
      "gi": 9329,
      "eces": 9330,
      "specific": 9331,
      "è®¾": 9332,
      "Age": 9333,
      "ai": 9334,
      "Ġpayment": 9335,
      "could": 9336,
      "reet": 9337,
      "Ġ(@": 9338,
      "Ġrand": 9339,
      "Lists": 9340,
      "Ġcontract": 9341,
      "ĠserviceName": 9342,
      "Video": 9343,
      "Ġauthorization": 9344,
      "ubernet": 9345,
      "Windows": 9346,
      "ubernetes": 9347,
      "Ġattached": 9348,
      "Texture": 9349,
      "Ġbehavior": 9350,
      "getEPackage": 9351,
      "setType": 9352,
      "ĠQu": 9353,
      "listen": 9354,
      "frames": 9355,
      "IME": 9356,
      "ĠAnd": 9357,
      "Cause": 9358,
      "Ġpylint": 9359,
      "Ġfac": 9360,
      "PU": 9361,
      "Serialize": 9362,
      "getEClass": 9363,
      "phi": 9364,
      "icates": 9365,
      "ĠVariable": 9366,
      "optim": 9367,
      "ritical": 9368,
      "getEClassifiers": 9369,
      "Ġsupports": 9370,
      "BYTE": 9371,
      "competency": 9372,
      "Issue": 9373,
      "=_": 9374,
      "Connections": 9375,
      "gz": 9376,
      "Primitive": 9377,
      "UpperCase": 9378,
      "LATE": 9379,
      "Wide": 9380,
      "Ġ\"</": 9381,
      "Behavior": 9382,
      "Ġrendered": 9383,
      "Ġbr": 9384,
      "RequestInterface": 9385,
      "Ġassignment": 9386,
      "ality": 9387,
      "commerce": 9388,
      "errno": 9389,
      "ĠSecurity": 9390,
      "ByteBuffer": 9391,
      "Numeric": 9392,
      "striction": 9393,
      "]/": 9394,
      "Clone": 9395,
      "Completed": 9396,
      ")])": 9397,
      "Ġnb": 9398,
      "RET": 9399,
      "TRA": 9400,
      "TTL": 9401,
      "Ġreplacement": 9402,
      "ĠPut": 9403,
      "ĠReset": 9404,
      "Ġ)->": 9405,
      "decoded": 9406,
      "ãģĹ": 9407,
      "Question": 9408,
      "phabet": 9409,
      "Ġdep": 9410,
      "Ġbasename": 9411,
      "Ġcompact": 9412,
      "ĠStandard": 9413,
      "Ġphp": 9414,
      "PY": 9415,
      "Syn": 9416,
      "lr": 9417,
      "spaces": 9418,
      "Ġcells": 9419,
      "Contracts": 9420,
      "Am": 9421,
      "Lifecycle": 9422,
      "Safe": 9423,
      "newValue": 9424,
      "Ġkw": 9425,
      "constraints": 9426,
      "ĠnewValue": 9427,
      "izers": 9428,
      "ĠTypes": 9429,
      "Ġmeasure": 9430,
      "anchor": 9431,
      "Ġpipe": 9432,
      "umbs": 9433,
      "Geo": 9434,
      "getNext": 9435,
      "RESOURCE": 9436,
      "Ġdecoded": 9437,
      "ĊĠĠĊĠ": 9438,
      "presentation": 9439,
      "clip": 9440,
[...]
